#include "magic_wand_model_data.h"


// We need to keep the data array aligned on some architectures.

#ifdef __has_attribute

#define HAVE_ATTRIBUTE(x) __has_attribute(x)

#else

#define HAVE_ATTRIBUTE(x) 0

#endif

#if HAVE_ATTRIBUTE(aligned) || (defined(__GNUC__) && !defined(__clang__))

#define DATA_ALIGN_ATTRIBUTE __attribute__((aligned(4)))

#else

#define DATA_ALIGN_ATTRIBUTE

#endif


const unsigned char g_magic_wand_model_data[] DATA_ALIGN_ATTRIBUTE = {
  0x08, 0x00, 0x00, 0x00, 0x54, 0x46, 0x4c, 0x33, 0x62, 0xff, 0xff, 0xff,
  0x03, 0x00, 0x00, 0x00, 0x10, 0x00, 0x00, 0x00, 0x24, 0x00, 0x00, 0x00,
  0x78, 0x00, 0x00, 0x00, 0x24, 0x00, 0x00, 0x00, 0x05, 0x00, 0x00, 0x00,
  0x78, 0x05, 0x00, 0x00, 0xb0, 0x04, 0x00, 0x00, 0xe0, 0x02, 0x00, 0x00,
  0x60, 0x02, 0x00, 0x00, 0x54, 0x01, 0x00, 0x00, 0x01, 0x00, 0x00, 0x00,
  0x78, 0x00, 0x00, 0x00, 0x13, 0x00, 0x00, 0x00, 0x18, 0x30, 0x00, 0x00,
  0x14, 0x30, 0x00, 0x00, 0x20, 0x2f, 0x00, 0x00, 0xa8, 0x2e, 0x00, 0x00,
  0x3c, 0x2e, 0x00, 0x00, 0xec, 0x11, 0x00, 0x00, 0x98, 0x10, 0x00, 0x00,
  0xbc, 0x0e, 0x00, 0x00, 0x60, 0x06, 0x00, 0x00, 0xfc, 0x05, 0x00, 0x00,
  0x78, 0x05, 0x00, 0x00, 0xec, 0x2f, 0x00, 0x00, 0xe8, 0x2f, 0x00, 0x00,
  0xe4, 0x2f, 0x00, 0x00, 0xe0, 0x2f, 0x00, 0x00, 0xdc, 0x2f, 0x00, 0x00,
  0xd8, 0x2f, 0x00, 0x00, 0xd4, 0x2f, 0x00, 0x00, 0xd0, 0x2f, 0x00, 0x00,
  0x0f, 0x00, 0x00, 0x00, 0x4d, 0x4c, 0x49, 0x52, 0x20, 0x43, 0x6f, 0x6e,
  0x76, 0x65, 0x72, 0x74, 0x65, 0x64, 0x2e, 0x00, 0x00, 0x00, 0x0e, 0x00,
  0x18, 0x00, 0x04, 0x00, 0x08, 0x00, 0x0c, 0x00, 0x10, 0x00, 0x14, 0x00,
  0x0e, 0x00, 0x00, 0x00, 0x14, 0x00, 0x00, 0x00, 0x5c, 0x00, 0x00, 0x00,
  0x60, 0x00, 0x00, 0x00, 0x64, 0x00, 0x00, 0x00, 0x84, 0x00, 0x00, 0x00,
  0x12, 0x00, 0x00, 0x00, 0x48, 0x2f, 0x00, 0x00, 0xe4, 0x2e, 0x00, 0x00,
  0x3c, 0x2e, 0x00, 0x00, 0xd8, 0x2d, 0x00, 0x00, 0x70, 0x2d, 0x00, 0x00,
  0x1c, 0x11, 0x00, 0x00, 0xc0, 0x0f, 0x00, 0x00, 0xe4, 0x0d, 0x00, 0x00,
  0xa0, 0x05, 0x00, 0x00, 0x3c, 0x05, 0x00, 0x00, 0xb0, 0x04, 0x00, 0x00,
  0xe8, 0x03, 0x00, 0x00, 0x38, 0x03, 0x00, 0x00, 0xa4, 0x02, 0x00, 0x00,
  0x10, 0x02, 0x00, 0x00, 0x90, 0x01, 0x00, 0x00, 0xfc, 0x00, 0x00, 0x00,
  0x80, 0x00, 0x00, 0x00, 0x01, 0x00, 0x00, 0x00, 0x00, 0x00, 0x00, 0x00,
  0x01, 0x00, 0x00, 0x00, 0x11, 0x00, 0x00, 0x00, 0x08, 0x00, 0x00, 0x00,
  0x1c, 0x04, 0x00, 0x00, 0x58, 0x03, 0x00, 0x00, 0xc8, 0x02, 0x00, 0x00,
  0x24, 0x02, 0x00, 0x00, 0xac, 0x01, 0x00, 0x00, 0x10, 0x01, 0x00, 0x00,
  0x94, 0x00, 0x00, 0x00, 0x10, 0x00, 0x00, 0x00, 0x04, 0x00, 0x00, 0x00,
  0x6d, 0x61, 0x69, 0x6e, 0x00, 0x00, 0x00, 0x00, 0x8e, 0xff, 0xff, 0xff,
  0x00, 0x00, 0x00, 0x09, 0x04, 0x00, 0x00, 0x00, 0x1c, 0x00, 0x00, 0x00,
  0x10, 0x00, 0x00, 0x00, 0x04, 0x00, 0x00, 0x00, 0x0a, 0xd2, 0xff, 0xff,
  0x00, 0x00, 0x80, 0x3f, 0x01, 0x00, 0x00, 0x00, 0x11, 0x00, 0x00, 0x00,
  0x01, 0x00, 0x00, 0x00, 0x10, 0x00, 0x00, 0x00, 0xf6, 0xfb, 0xff, 0xff,
  0x00, 0x00, 0x00, 0x19, 0x01, 0x00, 0x00, 0x00, 0x8a, 0xd1, 0xff, 0xff,
  0x10, 0x00, 0x00, 0x00, 0x12, 0x00, 0x00, 0x00, 0x14, 0x00, 0x00, 0x00,
  0x20, 0x00, 0x00, 0x00, 0x02, 0x00, 0x00, 0x00, 0x01, 0x00, 0x00, 0x00,
  0x04, 0x00, 0x00, 0x00, 0x08, 0x00, 0x00, 0x00, 0x49, 0x64, 0x65, 0x6e,
  0x74, 0x69, 0x74, 0x79, 0x00, 0x00, 0x00, 0x00, 0xc4, 0xd1, 0xff, 0xff,
  0x00, 0x00, 0x0e, 0x00, 0x18, 0x00, 0x08, 0x00, 0x0c, 0x00, 0x10, 0x00,
  0x07, 0x00, 0x14, 0x00, 0x0e, 0x00, 0x00, 0x00, 0x00, 0x00, 0x00, 0x08,
  0x03, 0x00, 0x00, 0x00, 0x18, 0x00, 0x00, 0x00, 0x0c, 0x00, 0x00, 0x00,
  0x04, 0x00, 0x00, 0x00, 0x98, 0xd1, 0xff, 0xff, 0x01, 0x00, 0x00, 0x00,
  0x10, 0x00, 0x00, 0x00, 0x03, 0x00, 0x00, 0x00, 0x0f, 0x00, 0x00, 0x00,
  0x05, 0x00, 0x00, 0x00, 0x02, 0x00, 0x00, 0x00, 0x02, 0xd2, 0xff, 0xff,
  0x10, 0x00, 0x00, 0x00, 0x11, 0x00, 0x00, 0x00, 0x14, 0x00, 0x00, 0x00,
  0x30, 0x00, 0x00, 0x00, 0x02, 0x00, 0x00, 0x00, 0x01, 0x00, 0x00, 0x00,
  0x04, 0x00, 0x00, 0x00, 0x1a, 0x00, 0x00, 0x00, 0x73, 0x65, 0x71, 0x75,
  0x65, 0x6e, 0x74, 0x69, 0x61, 0x6c, 0x2f, 0x64, 0x65, 0x6e, 0x73, 0x65,
  0x5f, 0x31, 0x2f, 0x42, 0x69, 0x61, 0x73, 0x41, 0x64, 0x64, 0x00, 0x00,
  0xf4, 0xd1, 0xff, 0xff, 0xd6, 0xfd, 0xff, 0xff, 0x00, 0x00, 0x00, 0x08,
  0x03, 0x00, 0x00, 0x00, 0x24, 0x00, 0x00, 0x00, 0x18, 0x00, 0x00, 0x00,
  0x0c, 0x00, 0x00, 0x00, 0x00, 0x00, 0x06, 0x00, 0x08, 0x00, 0x07, 0x00,
  0x06, 0x00, 0x00, 0x00, 0x00, 0x00, 0x00, 0x01, 0x01, 0x00, 0x00, 0x00,
  0x0f, 0x00, 0x00, 0x00, 0x03, 0x00, 0x00, 0x00, 0x0e, 0x00, 0x00, 0x00,
  0x04, 0x00, 0x00, 0x00, 0x01, 0x00, 0x00, 0x00, 0xfe, 0xfc, 0xff, 0xff,
  0x00, 0x00, 0x00, 0x09, 0x01, 0x00, 0x00, 0x00, 0x92, 0xd2, 0xff, 0xff,
  0x10, 0x00, 0x00, 0x00, 0x10, 0x00, 0x00, 0x00, 0x14, 0x00, 0x00, 0x00,
  0x2c, 0x00, 0x00, 0x00, 0x02, 0x00, 0x00, 0x00, 0x01, 0x00, 0x00, 0x00,
  0x10, 0x00, 0x00, 0x00, 0x15, 0x00, 0x00, 0x00, 0x73, 0x65, 0x71, 0x75,
  0x65, 0x6e, 0x74, 0x69, 0x61, 0x6c, 0x2f, 0x64, 0x65, 0x6e, 0x73, 0x65,
  0x2f, 0x52, 0x65, 0x6c, 0x75, 0x00, 0x00, 0x00, 0xd8, 0xd2, 0xff, 0xff,
  0x00, 0x00, 0x0a, 0x00, 0x10, 0x00, 0x04, 0x00, 0x08, 0x00, 0x0c, 0x00,
  0x0a, 0x00, 0x00, 0x00, 0x02, 0x00, 0x00, 0x00, 0x10, 0x00, 0x00, 0x00,
  0x04, 0x00, 0x00, 0x00, 0x01, 0x00, 0x00, 0x00, 0x0e, 0x00, 0x00, 0x00,
  0x02, 0x00, 0x00, 0x00, 0x0d, 0x00, 0x00, 0x00, 0x03, 0x00, 0x00, 0x00,
  0x7a, 0xfd, 0xff, 0xff, 0x00, 0x00, 0x00, 0x16, 0x01, 0x00, 0x00, 0x00,
  0x0e, 0xd3, 0xff, 0xff, 0x10, 0x00, 0x00, 0x00, 0x0f, 0x00, 0x00, 0x00,
  0x14, 0x00, 0x00, 0x00, 0x30, 0x00, 0x00, 0x00, 0x02, 0x00, 0x00, 0x00,
  0x01, 0x00, 0x00, 0x00, 0x70, 0x00, 0x00, 0x00, 0x1a, 0x00, 0x00, 0x00,
  0x73, 0x65, 0x71, 0x75, 0x65, 0x6e, 0x74, 0x69, 0x61, 0x6c, 0x2f, 0x66,
  0x6c, 0x61, 0x74, 0x74, 0x65, 0x6e, 0x2f, 0x52, 0x65, 0x73, 0x68, 0x61,
  0x70, 0x65, 0x00, 0x00, 0x00, 0xd3, 0xff, 0xff, 0xe2, 0xfe, 0xff, 0xff,
  0x00, 0x00, 0x00, 0x05, 0x01, 0x00, 0x00, 0x00, 0x38, 0x00, 0x00, 0x00,
  0x2c, 0x00, 0x00, 0x00, 0x14, 0x00, 0x00, 0x00, 0x00, 0x00, 0x0e, 0x00,
  0x14, 0x00, 0x00, 0x00, 0x10, 0x00, 0x0c, 0x00, 0x08, 0x00, 0x04, 0x00,
  0x0e, 0x00, 0x00, 0x00, 0x03, 0x00, 0x00, 0x00, 0x01, 0x00, 0x00, 0x00,
  0x03, 0x00, 0x00, 0x00, 0x01, 0x00, 0x00, 0x00, 0x01, 0x00, 0x00, 0x00,
  0x0d, 0x00, 0x00, 0x00, 0x01, 0x00, 0x00, 0x00, 0x0c, 0x00, 0x00, 0x00,
  0x9e, 0xd3, 0xff, 0xff, 0x10, 0x00, 0x00, 0x00, 0x0e, 0x00, 0x00, 0x00,
  0x1c, 0x00, 0x00, 0x00, 0x40, 0x00, 0x00, 0x00, 0x04, 0x00, 0x00, 0x00,
  0x01, 0x00, 0x00, 0x00, 0x07, 0x00, 0x00, 0x00, 0x01, 0x00, 0x00, 0x00,
  0x10, 0x00, 0x00, 0x00, 0x22, 0x00, 0x00, 0x00, 0x73, 0x65, 0x71, 0x75,
  0x65, 0x6e, 0x74, 0x69, 0x61, 0x6c, 0x2f, 0x6d, 0x61, 0x78, 0x5f, 0x70,
  0x6f, 0x6f, 0x6c, 0x69, 0x6e, 0x67, 0x32, 0x64, 0x5f, 0x31, 0x2f, 0x4d,
  0x61, 0x78, 0x50, 0x6f, 0x6f, 0x6c, 0x00, 0x00, 0xa0, 0xd3, 0xff, 0xff,
  0xc2, 0xfe, 0xff, 0xff, 0x00, 0x00, 0x00, 0x01, 0x24, 0x00, 0x00, 0x00,
  0x18, 0x00, 0x00, 0x00, 0x04, 0x00, 0x00, 0x00, 0xb4, 0xfe, 0xff, 0xff,
  0x01, 0x00, 0x00, 0x00, 0x01, 0x00, 0x00, 0x00, 0x00, 0x00, 0x00, 0x01,
  0x01, 0x00, 0x00, 0x00, 0x0c, 0x00, 0x00, 0x00, 0x03, 0x00, 0x00, 0x00,
  0x0b, 0x00, 0x00, 0x00, 0x07, 0x00, 0x00, 0x00, 0x09, 0x00, 0x00, 0x00,
  0x2e, 0xd4, 0xff, 0xff, 0x10, 0x00, 0x00, 0x00, 0x0d, 0x00, 0x00, 0x00,
  0x1c, 0x00, 0x00, 0x00, 0x2c, 0x00, 0x00, 0x00, 0x04, 0x00, 0x00, 0x00,
  0x01, 0x00, 0x00, 0x00, 0x15, 0x00, 0x00, 0x00, 0x01, 0x00, 0x00, 0x00,
  0x10, 0x00, 0x00, 0x00, 0x0c, 0x00, 0x00, 0x00, 0x74, 0x66, 0x6c, 0x2e,
  0x63, 0x6f, 0x6e, 0x76, 0x5f, 0x32, 0x64, 0x31, 0x00, 0x00, 0x00, 0x00,
  0x74, 0xd4, 0xff, 0xff, 0x00, 0x00, 0x0e, 0x00, 0x1a, 0x00, 0x08, 0x00,
  0x0c, 0x00, 0x10, 0x00, 0x07, 0x00, 0x14, 0x00, 0x0e, 0x00, 0x00, 0x00,
  0x00, 0x00, 0x00, 0x05, 0x01, 0x00, 0x00, 0x00, 0x3c, 0x00, 0x00, 0x00,
  0x30, 0x00, 0x00, 0x00, 0x14, 0x00, 0x00, 0x00, 0x00, 0x00, 0x0e, 0x00,
  0x18, 0x00, 0x17, 0x00, 0x10, 0x00, 0x0c, 0x00, 0x08, 0x00, 0x04, 0x00,
  0x0e, 0x00, 0x00, 0x00, 0x03, 0x00, 0x00, 0x00, 0x03, 0x00, 0x00, 0x00,
  0x03, 0x00, 0x00, 0x00, 0x03, 0x00, 0x00, 0x00, 0x00, 0x00, 0x00, 0x01,
  0x01, 0x00, 0x00, 0x00, 0x0b, 0x00, 0x00, 0x00, 0x01, 0x00, 0x00, 0x00,
  0x0a, 0x00, 0x00, 0x00, 0x46, 0xff, 0xff, 0xff, 0x00, 0x00, 0x00, 0x11,
  0x01, 0x00, 0x00, 0x00, 0xda, 0xd4, 0xff, 0xff, 0x10, 0x00, 0x00, 0x00,
  0x0c, 0x00, 0x00, 0x00, 0x1c, 0x00, 0x00, 0x00, 0x40, 0x00, 0x00, 0x00,
  0x04, 0x00, 0x00, 0x00, 0x01, 0x00, 0x00, 0x00, 0x15, 0x00, 0x00, 0x00,
  0x01, 0x00, 0x00, 0x00, 0x08, 0x00, 0x00, 0x00, 0x20, 0x00, 0x00, 0x00,
  0x73, 0x65, 0x71, 0x75, 0x65, 0x6e, 0x74, 0x69, 0x61, 0x6c, 0x2f, 0x6d,
  0x61, 0x78, 0x5f, 0x70, 0x6f, 0x6f, 0x6c, 0x69, 0x6e, 0x67, 0x32, 0x64,
  0x2f, 0x4d, 0x61, 0x78, 0x50, 0x6f, 0x6f, 0x6c, 0x00, 0x00, 0x00, 0x00,
  0x34, 0xd5, 0xff, 0xff, 0x00, 0x00, 0x0e, 0x00, 0x14, 0x00, 0x00, 0x00,
  0x08, 0x00, 0x0c, 0x00, 0x07, 0x00, 0x10, 0x00, 0x0e, 0x00, 0x00, 0x00,
  0x00, 0x00, 0x00, 0x01, 0x30, 0x00, 0x00, 0x00, 0x24, 0x00, 0x00, 0x00,
  0x10, 0x00, 0x00, 0x00, 0x0c, 0x00, 0x10, 0x00, 0x00, 0x00, 0x04, 0x00,
  0x08, 0x00, 0x0f, 0x00, 0x0c, 0x00, 0x00, 0x00, 0x01, 0x00, 0x00, 0x00,
  0x01, 0x00, 0x00, 0x00, 0x00, 0x00, 0x00, 0x01, 0x01, 0x00, 0x00, 0x00,
  0x0a, 0x00, 0x00, 0x00, 0x03, 0x00, 0x00, 0x00, 0x00, 0x00, 0x00, 0x00,
  0x06, 0x00, 0x00, 0x00, 0x08, 0x00, 0x00, 0x00, 0x00, 0x00, 0x0a, 0x00,
  0x0c, 0x00, 0x07, 0x00, 0x00, 0x00, 0x08, 0x00, 0x0a, 0x00, 0x00, 0x00,
  0x00, 0x00, 0x00, 0x03, 0x01, 0x00, 0x00, 0x00, 0x9e, 0xd5, 0xff, 0xff,
  0x10, 0x00, 0x00, 0x00, 0x0b, 0x00, 0x00, 0x00, 0x1c, 0x00, 0x00, 0x00,
  0x28, 0x00, 0x00, 0x00, 0x04, 0x00, 0x00, 0x00, 0x01, 0x00, 0x00, 0x00,
  0x40, 0x00, 0x00, 0x00, 0x03, 0x00, 0x00, 0x00, 0x08, 0x00, 0x00, 0x00,
  0x0b, 0x00, 0x00, 0x00, 0x74, 0x66, 0x6c, 0x2e, 0x63, 0x6f, 0x6e, 0x76,
  0x5f, 0x32, 0x64, 0x00, 0x88, 0xd5, 0xff, 0xff, 0x7e, 0xd6, 0xff, 0xff,
  0x04, 0x00, 0x00, 0x00, 0x40, 0x00, 0x00, 0x00, 0x80, 0xb8, 0x70, 0x40,
  0xb9, 0x63, 0x8e, 0xbf, 0x61, 0x35, 0x83, 0xbf, 0x26, 0x74, 0xb7, 0x3c,
  0xd4, 0x3b, 0x96, 0xbf, 0x9e, 0xbd, 0x90, 0xbd, 0x17, 0x51, 0xdc, 0xbc,
  0xd6, 0xdc, 0x5b, 0x40, 0x8d, 0x1a, 0xcf, 0xbf, 0x43, 0x16, 0xc3, 0xbf,
  0x28, 0x7b, 0x5a, 0xbb, 0xdf, 0xc5, 0x62, 0x40, 0x70, 0xac, 0x2a, 0x3d,
  0x9d, 0x4b, 0xe9, 0xbe, 0x96, 0xd4, 0xe1, 0xbf, 0xac, 0x01, 0xeb, 0xbd,
  0x26, 0xd6, 0xff, 0xff, 0x10, 0x00, 0x00, 0x00, 0x0a, 0x00, 0x00, 0x00,
  0x10, 0x00, 0x00, 0x00, 0x20, 0x00, 0x00, 0x00, 0x01, 0x00, 0x00, 0x00,
  0x10, 0x00, 0x00, 0x00, 0x0d, 0x00, 0x00, 0x00, 0x73, 0x74, 0x64, 0x2e,
  0x63, 0x6f, 0x6e, 0x73, 0x74, 0x61, 0x6e, 0x74, 0x31, 0x00, 0x00, 0x00,
  0x08, 0xd6, 0xff, 0xff, 0xfe, 0xd6, 0xff, 0xff, 0x04, 0x00, 0x00, 0x00,
  0x20, 0x00, 0x00, 0x00, 0xa9, 0x7d, 0xf4, 0xbe, 0xd5, 0x02, 0xe2, 0xbf,
  0xec, 0xbd, 0x01, 0xc0, 0x76, 0x3a, 0x0a, 0xc0, 0x22, 0x6d, 0xd7, 0xbf,
  0x22, 0x22, 0x24, 0xc0, 0xda, 0xd1, 0xbe, 0xbf, 0x0d, 0x2a, 0x01, 0xc0,
  0x86, 0xd6, 0xff, 0xff, 0x10, 0x00, 0x00, 0x00, 0x09, 0x00, 0x00, 0x00,
  0x10, 0x00, 0x00, 0x00, 0x20, 0x00, 0x00, 0x00, 0x01, 0x00, 0x00, 0x00,
  0x08, 0x00, 0x00, 0x00, 0x0c, 0x00, 0x00, 0x00, 0x73, 0x74, 0x64, 0x2e,
  0x63, 0x6f, 0x6e, 0x73, 0x74, 0x61, 0x6e, 0x74, 0x00, 0x00, 0x00, 0x00,
  0x68, 0xd6, 0xff, 0xff, 0x5e, 0xd7, 0xff, 0xff, 0x04, 0x00, 0x00, 0x00,
  0x00, 0x08, 0x00, 0x00, 0x57, 0x80, 0xae, 0xbc, 0x72, 0xcb, 0x17, 0xbd,
  0xa3, 0x74, 0x74, 0xbd, 0x5c, 0x9a, 0x8a, 0xbe, 0x87, 0x0f, 0xa4, 0xbd,
  0x39, 0x89, 0xd1, 0xbd, 0x52, 0x69, 0xf4, 0xbd, 0x81, 0xae, 0xd9, 0xbc,
  0x56, 0x48, 0x20, 0xbc, 0x26, 0xdb, 0x1e, 0xbd, 0xe5, 0x9c, 0xa7, 0xbc,
  0xb6, 0x63, 0x9e, 0xbd, 0x0b, 0xfe, 0xc3, 0x3d, 0xa2, 0x8e, 0xa5, 0xbd,
  0x05, 0xda, 0x19, 0x3f, 0xb2, 0xf2, 0xc7, 0xbb, 0xb0, 0xbc, 0x70, 0xbd,
  0xe8, 0x32, 0x74, 0xbb, 0x35, 0xc4, 0x60, 0x3c, 0xf4, 0xab, 0x97, 0xbe,
  0x30, 0xf2, 0x2a, 0xbe, 0xd8, 0x4a, 0x1f, 0xbf, 0x2a, 0xd3, 0x47, 0xbe,
  0xb7, 0xb3, 0x8a, 0xbd, 0x3e, 0x85, 0x6f, 0x3d, 0xef, 0x2e, 0x95, 0xbc,
  0xfe, 0x8d, 0xf2, 0x3c, 0x3c, 0x77, 0x92, 0xbd, 0xbe, 0xe8, 0x8c, 0xbb,
  0xed, 0x84, 0x06, 0xbd, 0x25, 0x14, 0xc9, 0xbb, 0xa6, 0x4c, 0x9c, 0xbd,
  0x58, 0x7a, 0xf3, 0xbd, 0xbb, 0xb8, 0x84, 0x3e, 0x8b, 0x28, 0x5f, 0xbe,
  0x58, 0xec, 0x09, 0x3f, 0xc5, 0x38, 0xc1, 0xbd, 0x85, 0x56, 0xe3, 0xbd,
  0x0b, 0x70, 0x02, 0xbf, 0xd5, 0x00, 0xac, 0xbd, 0x23, 0x9c, 0x61, 0xbe,
  0x37, 0x6b, 0xbf, 0xbe, 0xbe, 0x6d, 0x04, 0xbe, 0x70, 0x6f, 0x28, 0x3d,
  0x15, 0xe2, 0x52, 0x3e, 0xab, 0xf5, 0x5b, 0x3d, 0x71, 0xb2, 0x0d, 0xbf,
  0xd4, 0x96, 0x21, 0xbd, 0x57, 0x92, 0xee, 0xbe, 0xee, 0x47, 0x1e, 0xbf,
  0x92, 0xc7, 0xb6, 0x3d, 0x7c, 0xb8, 0x2c, 0x3d, 0xd7, 0x4b, 0xaf, 0xbd,
  0xe9, 0x46, 0x69, 0x3e, 0x2b, 0x43, 0x2b, 0x3d, 0xae, 0x55, 0x8f, 0xbd,
  0x2c, 0x0c, 0xe5, 0xbe, 0xfa, 0x92, 0x7e, 0xbe, 0x38, 0x09, 0xd5, 0x3c,
  0xdd, 0x62, 0xee, 0x3d, 0x99, 0x6d, 0xf2, 0xbe, 0xc6, 0xb0, 0x85, 0x3d,
  0x5c, 0xb4, 0xc9, 0x3c, 0xb2, 0x0d, 0xda, 0xbd, 0x16, 0xc8, 0x28, 0xbe,
  0x9f, 0x06, 0x07, 0xbf, 0x75, 0xe7, 0xeb, 0xbc, 0xe9, 0xde, 0x8e, 0xbe,
  0xf7, 0x1a, 0x27, 0xbd, 0xf4, 0x14, 0x80, 0xbd, 0xe9, 0x63, 0x8e, 0xbe,
  0xcc, 0x69, 0x8a, 0xbd, 0x78, 0x38, 0xf6, 0xbd, 0xe8, 0x96, 0x5f, 0xbe,
  0x07, 0x44, 0x09, 0x3c, 0xa0, 0x9d, 0x26, 0xbc, 0x68, 0x9e, 0xc7, 0xbe,
  0x50, 0x13, 0xc3, 0x3e, 0x66, 0x24, 0xdd, 0x3d, 0x2d, 0xe2, 0xe5, 0x3b,
  0x6e, 0x9f, 0x84, 0x3e, 0xb7, 0xb3, 0xa1, 0x3d, 0xb3, 0xf8, 0x07, 0xbe,
  0xbe, 0xfb, 0x07, 0xbe, 0x19, 0xaf, 0xe8, 0x3d, 0xa3, 0xed, 0xb9, 0x3d,
  0x81, 0x90, 0x89, 0x3d, 0xb4, 0x31, 0x07, 0xb9, 0xca, 0xb4, 0x43, 0xbc,
  0x0a, 0x7c, 0xea, 0xbd, 0x42, 0xc5, 0xd5, 0xbd, 0x4d, 0xc7, 0x39, 0xbe,
  0xcc, 0x69, 0x09, 0x3e, 0xac, 0xe0, 0x29, 0x3d, 0x52, 0x22, 0x1d, 0xbe,
  0x34, 0x34, 0x57, 0xbd, 0x52, 0xc4, 0xf5, 0xbe, 0x42, 0x51, 0x71, 0xbe,
  0x7e, 0x90, 0x9d, 0xbd, 0xbc, 0x50, 0x07, 0xbe, 0xf4, 0xe0, 0xda, 0xbe,
  0x57, 0x74, 0x72, 0x3a, 0x36, 0xc2, 0xe4, 0xbe, 0x53, 0x67, 0x43, 0xbe,
  0x8b, 0xdb, 0x02, 0x3d, 0x46, 0xfc, 0x00, 0x3e, 0x79, 0x4a, 0xac, 0x3e,
  0xfc, 0xd7, 0x80, 0xbd, 0xf4, 0x91, 0x25, 0x3e, 0xdb, 0x0c, 0x53, 0xbe,
  0x77, 0x06, 0x2b, 0x3d, 0xc3, 0x0e, 0x3f, 0xbc, 0x21, 0xc4, 0x25, 0x3d,
  0x48, 0x65, 0x86, 0x3d, 0xfc, 0x28, 0xdb, 0xbc, 0x58, 0x03, 0x90, 0xbe,
  0x05, 0x93, 0x01, 0xbe, 0x34, 0xea, 0x0f, 0xbf, 0x47, 0xd9, 0x56, 0xbe,
  0x0d, 0x89, 0x78, 0x3b, 0x79, 0x67, 0xef, 0x3d, 0x31, 0x28, 0xe5, 0x3d,
  0x74, 0x84, 0x79, 0x3d, 0x50, 0xf8, 0x03, 0x3d, 0x95, 0x9d, 0x35, 0x3d,
  0xc6, 0x2b, 0xea, 0xbc, 0x88, 0x04, 0x55, 0x3d, 0x71, 0x25, 0x67, 0x3c,
  0x11, 0x17, 0xd2, 0xbd, 0xa4, 0x97, 0xca, 0xbc, 0xb8, 0xb1, 0x70, 0x3c,
  0xfd, 0x0d, 0x4a, 0x3e, 0x9d, 0x75, 0x11, 0xbe, 0x78, 0xf1, 0x93, 0x3d,
  0x8c, 0x1d, 0x9a, 0x3d, 0x78, 0xf9, 0xb5, 0xbd, 0xe8, 0xa2, 0xc4, 0xbc,
  0x59, 0x5d, 0x66, 0xbd, 0xeb, 0xcf, 0xcd, 0xbd, 0x44, 0x6c, 0x57, 0x3d,
  0x1c, 0x86, 0x9f, 0xbd, 0x5d, 0xe7, 0x84, 0x3e, 0x9b, 0xc4, 0x2a, 0xbd,
  0xdf, 0x21, 0xc4, 0xbd, 0xb1, 0xdc, 0x0e, 0xbd, 0x85, 0x44, 0xda, 0xbd,
  0x7e, 0xda, 0xb6, 0xbd, 0xec, 0x77, 0x7f, 0x3d, 0x56, 0x6a, 0x61, 0x3e,
  0x84, 0xc0, 0x2e, 0xbe, 0xaf, 0x8c, 0x9d, 0x3d, 0xae, 0x11, 0x85, 0xbd,
  0x21, 0x92, 0x27, 0xbd, 0x8c, 0xb7, 0x80, 0xbd, 0xba, 0x57, 0x76, 0xbd,
  0x01, 0xab, 0x97, 0x3c, 0x62, 0x06, 0x63, 0x3d, 0x2a, 0xca, 0x04, 0x3f,
  0x27, 0x5a, 0x08, 0x3d, 0xd9, 0xd1, 0x8b, 0xbd, 0x98, 0x37, 0x80, 0xbd,
  0x62, 0x94, 0x89, 0xbd, 0x92, 0x17, 0x0b, 0xbc, 0x6f, 0x0b, 0x45, 0xbe,
  0x8c, 0x4f, 0x22, 0xbd, 0xce, 0x62, 0x9a, 0x3e, 0xa7, 0xe5, 0xcb, 0xbc,
  0xae, 0xc9, 0x8c, 0x3d, 0x79, 0xe4, 0xd9, 0x3e, 0x84, 0x4a, 0x16, 0x3b,
  0x28, 0x60, 0x84, 0xbd, 0x9b, 0x85, 0x59, 0xbe, 0x18, 0x2a, 0x8c, 0xbd,
  0xde, 0xd6, 0xda, 0xbd, 0x01, 0x75, 0xb0, 0xbc, 0xbd, 0x35, 0x9a, 0x3b,
  0xb3, 0x84, 0x75, 0xbe, 0x83, 0x34, 0x0c, 0xbf, 0xba, 0x7b, 0xa8, 0xbd,
  0x33, 0x97, 0x50, 0xbe, 0x5a, 0x55, 0x2d, 0xbe, 0x42, 0x60, 0x8c, 0xbe,
  0x12, 0x68, 0x1d, 0xbf, 0x4c, 0x14, 0xf7, 0x3b, 0x86, 0x25, 0x59, 0xbe,
  0xb1, 0xf7, 0x02, 0xbf, 0x60, 0xae, 0xdf, 0xbd, 0x02, 0x45, 0x2e, 0x3e,
  0x73, 0xdc, 0xa3, 0x3e, 0xd2, 0x47, 0x0d, 0x3e, 0x43, 0x0b, 0x16, 0xbf,
  0x84, 0x9c, 0x62, 0xba, 0xc5, 0x08, 0x2d, 0xbd, 0xec, 0x52, 0x99, 0xbe,
  0x50, 0x30, 0x97, 0xbb, 0x35, 0xe6, 0x45, 0xbe, 0x85, 0x7d, 0x04, 0x3d,
  0xf6, 0x76, 0xb7, 0xbd, 0xe0, 0x32, 0x73, 0x3e, 0xa2, 0x27, 0x74, 0xbe,
  0x48, 0x9b, 0x0c, 0x3e, 0x5f, 0xce, 0x1e, 0xbe, 0xf4, 0x9a, 0x37, 0xbe,
  0xf6, 0xad, 0xcc, 0xbe, 0x4d, 0xf6, 0x3b, 0xbe, 0xdf, 0xe9, 0x4c, 0x3d,
  0x76, 0xc0, 0x41, 0xbe, 0x0b, 0x9a, 0xf7, 0xbc, 0xfe, 0xf9, 0x27, 0x3e,
  0x8e, 0x4a, 0x9f, 0xbe, 0x48, 0x6f, 0x47, 0xbe, 0xda, 0x72, 0xf8, 0xbd,
  0x28, 0x6a, 0x6b, 0x3e, 0xcf, 0xff, 0xb9, 0xbc, 0xcd, 0xee, 0x35, 0x3e,
  0xbb, 0xa6, 0x12, 0xbe, 0x58, 0x08, 0x9c, 0xbd, 0xce, 0x57, 0xd7, 0x3c,
  0x25, 0x46, 0xc8, 0xbd, 0x56, 0xac, 0x9d, 0xbe, 0x2a, 0xf0, 0x02, 0xbd,
  0xcd, 0xd6, 0x1a, 0x3e, 0x2d, 0x52, 0xe7, 0xbd, 0x94, 0x7a, 0x80, 0x3e,
  0x64, 0xae, 0x94, 0xbd, 0x97, 0xa3, 0x34, 0xbe, 0x6d, 0x14, 0xbf, 0xbe,
  0x29, 0x94, 0x06, 0xbf, 0x33, 0x39, 0xd3, 0xbe, 0x62, 0x9c, 0x00, 0xbf,
  0x42, 0xed, 0xa8, 0xbe, 0x6a, 0x35, 0x7a, 0xbc, 0xd7, 0x93, 0xeb, 0x3d,
  0x92, 0xdf, 0xd7, 0xbd, 0xcf, 0x8d, 0x50, 0xbe, 0xb4, 0xd9, 0xf0, 0x3d,
  0x25, 0xf3, 0x1c, 0xbe, 0x13, 0xaa, 0x6c, 0xbd, 0xeb, 0xa7, 0x24, 0x3e,
  0xb5, 0x8b, 0x29, 0xbe, 0x7a, 0x83, 0x25, 0xbc, 0x33, 0x96, 0x3c, 0xbe,
  0x3f, 0x58, 0x58, 0xbe, 0xda, 0x88, 0xdb, 0x3e, 0x98, 0x91, 0x6d, 0xbd,
  0xcc, 0xb0, 0xaf, 0xbc, 0x9e, 0xe4, 0xb2, 0xbd, 0xd5, 0x48, 0x27, 0xbe,
  0xda, 0xec, 0x1d, 0x3d, 0x03, 0x41, 0x9a, 0x3e, 0xd4, 0x0a, 0xf1, 0xbd,
  0x51, 0x29, 0xb4, 0x3e, 0xec, 0x7a, 0xd0, 0x3b, 0x80, 0x4a, 0xaa, 0xbb,
  0x4f, 0x06, 0xb9, 0x3d, 0xe1, 0x17, 0x5b, 0xbe, 0xca, 0x2d, 0xdd, 0xbe,
  0x96, 0x5e, 0x25, 0xbf, 0xc5, 0x6d, 0xee, 0xbd, 0xed, 0x33, 0x7d, 0xbe,
  0xc9, 0xbb, 0xeb, 0xbe, 0x64, 0x5d, 0x0d, 0x3e, 0x84, 0x26, 0xd8, 0xbd,
  0xfc, 0xeb, 0x28, 0xbe, 0xd6, 0x1b, 0x83, 0xbd, 0xc4, 0x9a, 0xce, 0x3e,
  0x41, 0x70, 0x9e, 0xbd, 0xea, 0x37, 0xb3, 0x3e, 0xc8, 0x2a, 0x3c, 0xbe,
  0x92, 0x88, 0xa9, 0x3d, 0x94, 0xe4, 0xa7, 0x3d, 0x9e, 0x6d, 0x64, 0xbe,
  0x7c, 0x08, 0x89, 0xbb, 0xcb, 0x43, 0xb5, 0x3d, 0x17, 0xdc, 0x59, 0xbe,
  0x43, 0xcf, 0x38, 0x3d, 0x0c, 0x08, 0xae, 0x3d, 0xc3, 0x77, 0x74, 0xbd,
  0x00, 0xa5, 0x17, 0x3e, 0xca, 0x59, 0x68, 0xbe, 0xca, 0x31, 0xbc, 0x3c,
  0x85, 0xc8, 0x6d, 0x3d, 0x96, 0x1e, 0x93, 0xbe, 0x03, 0x2d, 0xc6, 0xbd,
  0x6a, 0xcc, 0xdc, 0x3c, 0x7c, 0x39, 0x70, 0x3d, 0xdb, 0xa7, 0x00, 0xbe,
  0xec, 0x65, 0x8e, 0xbc, 0x5b, 0xb0, 0xcc, 0xbc, 0xcd, 0x20, 0x9e, 0xbd,
  0xc2, 0xe6, 0x04, 0xbd, 0xdd, 0xa4, 0xc5, 0x3b, 0x10, 0x91, 0x94, 0xbd,
  0xba, 0x60, 0x24, 0x3f, 0x8c, 0x14, 0x82, 0xb9, 0xa1, 0x5b, 0xda, 0x3c,
  0x39, 0x0f, 0xe5, 0xbb, 0x37, 0xe1, 0x48, 0xbd, 0xfb, 0x3f, 0xab, 0xbb,
  0x58, 0xe7, 0x14, 0xbd, 0x62, 0xe7, 0xd3, 0x3c, 0x53, 0x7a, 0x25, 0x3d,
  0x4f, 0x02, 0x12, 0xbd, 0x36, 0x4b, 0xf4, 0xbb, 0x3a, 0xa2, 0xd4, 0x3c,
  0xe7, 0x21, 0x86, 0x3c, 0xb0, 0x39, 0x1c, 0xbc, 0x38, 0xeb, 0xd5, 0xbd,
  0x37, 0xd3, 0x9f, 0xbd, 0x55, 0xec, 0xc1, 0xbe, 0xc3, 0x0d, 0xa4, 0xbc,
  0xd8, 0x3e, 0x18, 0x3d, 0x1d, 0x7c, 0x22, 0x3c, 0x91, 0x73, 0x2e, 0x3d,
  0x83, 0x74, 0x55, 0xbd, 0xdd, 0xa1, 0xc6, 0xbd, 0x79, 0x49, 0x48, 0xbd,
  0x39, 0xb4, 0x8b, 0xbe, 0xa7, 0x9b, 0x52, 0x3d, 0xfb, 0x10, 0x84, 0x3c,
  0x44, 0xfb, 0x51, 0xbd, 0xcb, 0xf8, 0x28, 0xbe, 0xc9, 0xd0, 0x8f, 0xbd,
  0xeb, 0x45, 0xfd, 0xbc, 0x7c, 0xbc, 0x91, 0xbd, 0x97, 0x9a, 0xd6, 0x3d,
  0x7f, 0x16, 0x31, 0xbe, 0xaf, 0xe6, 0x15, 0x3e, 0x80, 0x6b, 0xfb, 0xbd,
  0x01, 0x53, 0x4c, 0xbb, 0xcb, 0xa5, 0x75, 0xbd, 0x45, 0x57, 0xac, 0x3c,
  0x9c, 0x32, 0xf8, 0xbd, 0x10, 0x97, 0x44, 0x3d, 0xce, 0x74, 0xa5, 0xbd,
  0xf8, 0xe4, 0xd7, 0xbe, 0xec, 0xfc, 0x35, 0xbd, 0x6f, 0xf4, 0x13, 0xbe,
  0x69, 0x11, 0x7c, 0xbe, 0xe6, 0xa7, 0x0d, 0xbf, 0x43, 0xc1, 0x67, 0xbc,
  0xad, 0xe0, 0x2a, 0x3d, 0x28, 0x95, 0xa0, 0x3d, 0x8f, 0xb3, 0xd0, 0xbe,
  0xdd, 0x98, 0x38, 0xbd, 0x06, 0xb6, 0x84, 0xbd, 0xaf, 0x48, 0x19, 0x3d,
  0x5a, 0xe8, 0x7b, 0xbe, 0x6f, 0x5f, 0x00, 0xbe, 0xf3, 0x2f, 0xc7, 0x3d,
  0x91, 0xa9, 0x1b, 0xbd, 0xf3, 0x94, 0xe9, 0x3a, 0x91, 0x94, 0x84, 0xbd,
  0xfe, 0x0e, 0xef, 0xbd, 0xc4, 0x55, 0xcd, 0xbe, 0x07, 0x59, 0xb9, 0xbe,
  0xe5, 0x14, 0xee, 0xbe, 0x0c, 0x3b, 0xe6, 0xbe, 0xf8, 0x02, 0x2a, 0xbe,
  0x2b, 0x18, 0x63, 0xbd, 0x64, 0xca, 0x74, 0xbd, 0xd4, 0x0b, 0xcf, 0xbd,
  0x10, 0x99, 0xb5, 0xbe, 0x97, 0x0d, 0x13, 0xbe, 0x34, 0xcd, 0xd2, 0xbe,
  0xba, 0x0f, 0x1f, 0xbf, 0x5e, 0x89, 0x9b, 0xbd, 0x7c, 0xa1, 0xaa, 0x3c,
  0x97, 0x48, 0x2e, 0xbd, 0x0d, 0xd0, 0x2a, 0x3d, 0x46, 0x4d, 0x2e, 0xbe,
  0xa5, 0xe5, 0x6b, 0x3e, 0x81, 0x78, 0x1a, 0x3c, 0xe8, 0x56, 0x46, 0x3d,
  0x1f, 0x56, 0x7e, 0x3c, 0x7a, 0x70, 0x13, 0xbe, 0x13, 0xab, 0x23, 0xbd,
  0x66, 0x7f, 0x75, 0x3e, 0xb3, 0x28, 0xf7, 0xbd, 0xbf, 0xd5, 0x14, 0x3e,
  0x27, 0xf6, 0x1a, 0x3e, 0x53, 0xa6, 0x83, 0xbd, 0x5c, 0xa7, 0xb2, 0x3e,
  0x3b, 0xb6, 0xb1, 0xbe, 0x56, 0xae, 0x68, 0x3e, 0x93, 0x31, 0x57, 0x3d,
  0x9f, 0x8d, 0xba, 0xbb, 0x8d, 0x02, 0x90, 0x3c, 0x27, 0x9f, 0xc7, 0xbd,
  0x34, 0xb3, 0x6c, 0xbd, 0x16, 0xda, 0x6f, 0x3e, 0x8b, 0x21, 0xde, 0x3d,
  0x09, 0x9b, 0xce, 0x3d, 0x67, 0x2f, 0xdc, 0x3d, 0x2f, 0x41, 0x83, 0xbd,
  0x4d, 0xed, 0x6b, 0xbe, 0x73, 0x73, 0x9f, 0xbe, 0x42, 0x67, 0xac, 0xbe,
  0x62, 0x73, 0x99, 0xbd, 0x2f, 0x09, 0x67, 0x3d, 0xeb, 0x52, 0xb3, 0x3d,
  0xb3, 0x5c, 0x5b, 0xbd, 0xa1, 0x91, 0x6c, 0xbc, 0xcb, 0xe6, 0x54, 0x3e,
  0x7e, 0x37, 0x36, 0xbd, 0xf1, 0x07, 0x59, 0xbd, 0xbd, 0x11, 0x3f, 0xbe,
  0x7c, 0xef, 0x01, 0x3e, 0x8c, 0xfd, 0x25, 0xbe, 0xe5, 0xe9, 0xb9, 0xbd,
  0x6f, 0xd3, 0xc6, 0xbe, 0xf0, 0x01, 0x70, 0xbe, 0x0c, 0x97, 0xd2, 0xbe,
  0x4f, 0x17, 0x23, 0x3e, 0x29, 0xd6, 0x5f, 0xbe, 0xfd, 0xae, 0x24, 0xbe,
  0xf0, 0x42, 0x83, 0xbe, 0xee, 0xe8, 0xa0, 0xbd, 0x61, 0xf4, 0x0d, 0x3d,
  0x37, 0x80, 0xb6, 0x3d, 0xd2, 0x7a, 0x73, 0xbc, 0x7a, 0xc0, 0xb8, 0x3d,
  0xc1, 0x24, 0xe8, 0x3b, 0x9c, 0xcb, 0x60, 0x3e, 0x2d, 0x09, 0x5d, 0xbe,
  0x4d, 0x66, 0x5d, 0x3e, 0xee, 0xc6, 0x22, 0x3e, 0x10, 0xb3, 0x19, 0x3e,
  0x38, 0x1c, 0x26, 0xbe, 0x67, 0x26, 0x00, 0x3b, 0x45, 0xbe, 0x28, 0x3d,
  0xea, 0xc4, 0x0e, 0xbe, 0xda, 0xf5, 0x1c, 0xbe, 0x6d, 0xdd, 0xb4, 0x3d,
  0xe4, 0x25, 0x63, 0x3b, 0x45, 0xba, 0x72, 0x3e, 0xdc, 0x80, 0x62, 0xbe,
  0x6c, 0x4c, 0xa2, 0xbb, 0xe6, 0x78, 0xac, 0x3c, 0xaa, 0x95, 0x58, 0xbe,
  0xc7, 0xd5, 0xd3, 0xbd, 0xb4, 0x2d, 0x1d, 0xbd, 0xd0, 0x8f, 0x4e, 0xbe,
  0xac, 0x05, 0x39, 0x3e, 0x51, 0x14, 0x4c, 0xbe, 0x10, 0x72, 0xc3, 0xbc,
  0xef, 0xc4, 0xab, 0x3d, 0xfa, 0xf1, 0x8d, 0xbe, 0xf6, 0x38, 0x76, 0x3d,
  0x73, 0xd5, 0x0a, 0x3f, 0xa8, 0x93, 0x3e, 0xbe, 0x27, 0xa2, 0x51, 0x3e,
  0x5d, 0xe9, 0xd2, 0x3d, 0xa9, 0x68, 0x02, 0xbd, 0xeb, 0x5f, 0x90, 0x3d,
  0x63, 0xff, 0xe9, 0xbe, 0xb5, 0xeb, 0xfd, 0xbc, 0xd4, 0xad, 0x19, 0xbd,
  0x24, 0xd7, 0x5b, 0xbe, 0xf4, 0xe0, 0x4c, 0xbd, 0xfa, 0x57, 0xd9, 0x3d,
  0xd1, 0x78, 0x5c, 0xbd, 0xd7, 0x4f, 0xa7, 0xbe, 0x04, 0x5a, 0x1a, 0xbe,
  0x80, 0xda, 0x0b, 0xbe, 0x83, 0xbb, 0x06, 0xbe, 0xef, 0x35, 0x72, 0xbd,
  0x8d, 0xf7, 0x6e, 0x3e, 0x79, 0x68, 0x0d, 0x3e, 0x43, 0x75, 0xe9, 0xbc,
  0x97, 0xa0, 0xaf, 0xbe, 0x4b, 0x47, 0x24, 0x3d, 0xf5, 0x44, 0x31, 0xbe,
  0x62, 0x7e, 0x4c, 0xbe, 0x2d, 0x5c, 0x41, 0xbc, 0x53, 0x4e, 0xcc, 0x3c,
  0x80, 0x5e, 0x73, 0xbe, 0x17, 0x27, 0xe7, 0x3c, 0x6c, 0x44, 0x49, 0xbe,
  0x4e, 0x72, 0x8d, 0x3d, 0xbb, 0x1e, 0x22, 0x3e, 0x1b, 0xdd, 0x3e, 0xbe,
  0x71, 0x23, 0x95, 0xbe, 0xa7, 0xe3, 0x7e, 0x3e, 0x79, 0x2d, 0xca, 0xbd,
  0x83, 0x02, 0x2e, 0x3d, 0x91, 0x82, 0x2a, 0x3e, 0x3a, 0xc2, 0xf8, 0xbe,
  0x88, 0x7a, 0xeb, 0x3d, 0xc9, 0x64, 0xa0, 0xbd, 0x40, 0x1c, 0x49, 0xbe,
  0x62, 0x3d, 0x1e, 0x3e, 0x2e, 0x44, 0xba, 0xbd, 0x77, 0xec, 0xb8, 0x3b,
  0xce, 0x0b, 0x8f, 0x3e, 0xd9, 0x78, 0x1a, 0xbf, 0x68, 0x3b, 0x03, 0xbd,
  0x12, 0x35, 0x4a, 0x3d, 0x80, 0xc7, 0x85, 0xbe, 0xeb, 0x76, 0x77, 0x3e,
  0x7e, 0x37, 0x1e, 0x3e, 0x14, 0xbe, 0x1c, 0x3d, 0x8a, 0x2d, 0xf0, 0xbb,
  0xd7, 0x1d, 0xcf, 0xbe, 0x4e, 0x3e, 0x0c, 0xbe, 0x79, 0x52, 0x87, 0xbe,
  0x24, 0x74, 0x64, 0xbd, 0x52, 0xa4, 0xf6, 0x3d, 0x3b, 0x42, 0x93, 0xba,
  0xf7, 0x2c, 0xf8, 0x3d, 0x38, 0x32, 0xa5, 0x3d, 0x99, 0xcf, 0x57, 0xbe,
  0xc6, 0xde, 0xff, 0xff, 0x10, 0x00, 0x00, 0x00, 0x08, 0x00, 0x00, 0x00,
  0x1c, 0x00, 0x00, 0x00, 0x38, 0x00, 0x00, 0x00, 0x04, 0x00, 0x00, 0x00,
  0x10, 0x00, 0x00, 0x00, 0x04, 0x00, 0x00, 0x00, 0x01, 0x00, 0x00, 0x00,
  0x08, 0x00, 0x00, 0x00, 0x1a, 0x00, 0x00, 0x00, 0x73, 0x65, 0x71, 0x75,
  0x65, 0x6e, 0x74, 0x69, 0x61, 0x6c, 0x2f, 0x63, 0x6f, 0x6e, 0x76, 0x32,
  0x64, 0x5f, 0x31, 0x2f, 0x43, 0x6f, 0x6e, 0x76, 0x32, 0x44, 0x00, 0x00,
  0xc0, 0xde, 0xff, 0xff, 0xb6, 0xdf, 0xff, 0xff, 0x04, 0x00, 0x00, 0x00,
  0x80, 0x01, 0x00, 0x00, 0xa8, 0xb0, 0xb3, 0x3e, 0xf3, 0xf8, 0x1f, 0xbb,
  0x4e, 0x82, 0xc9, 0xbd, 0xe3, 0x11, 0x12, 0x3e, 0xf6, 0x5e, 0xc5, 0x3d,
  0x63, 0xf9, 0x46, 0x3d, 0x45, 0xf5, 0x78, 0x3b, 0x52, 0x35, 0xd5, 0xbc,
  0x74, 0x2b, 0x77, 0x3d, 0xb5, 0xdf, 0xb0, 0xbd, 0x01, 0x5e, 0xe1, 0x3c,
  0x4f, 0xee, 0x16, 0xbe, 0x91, 0xfc, 0x1c, 0x3d, 0x3f, 0x13, 0xc4, 0x3d,
  0x3e, 0xc4, 0xa2, 0xbd, 0x33, 0x0a, 0x8e, 0x3d, 0xea, 0xe3, 0xd7, 0x3d,
  0xf4, 0xbc, 0x68, 0x3e, 0xf9, 0x16, 0x0f, 0x3d, 0x76, 0x88, 0x4b, 0x3d,
  0x82, 0x69, 0x93, 0x3d, 0x2c, 0xb4, 0x45, 0xbc, 0x24, 0x9c, 0x23, 0xbc,
  0xe4, 0x27, 0x01, 0xbd, 0xe5, 0x28, 0x35, 0xbd, 0x49, 0x70, 0x30, 0xbe,
  0xbc, 0xd1, 0x98, 0x3e, 0x43, 0x56, 0xaa, 0xbd, 0x5b, 0xb4, 0xd5, 0x3d,
  0x96, 0x83, 0x82, 0x3d, 0xc7, 0xb8, 0x4a, 0xbd, 0xdb, 0x1c, 0x7b, 0x3d,
  0x4a, 0x03, 0x1f, 0x3c, 0xce, 0xc2, 0xf7, 0xbc, 0xc4, 0x8a, 0xdf, 0x3d,
  0x2f, 0xc9, 0xe4, 0x3b, 0xc8, 0xe1, 0x11, 0xbe, 0x43, 0x50, 0x24, 0x3c,
  0x7f, 0xac, 0x3e, 0x3e, 0x26, 0x5c, 0xf8, 0xbd, 0x92, 0xcf, 0x27, 0xbd,
  0x8f, 0x77, 0xd2, 0x3e, 0x40, 0xd1, 0x27, 0x3d, 0x1c, 0x00, 0x04, 0x3e,
  0x43, 0x76, 0x8c, 0xbd, 0x3a, 0xd3, 0x5a, 0x3e, 0x62, 0x24, 0x93, 0x3d,
  0xa6, 0xcf, 0xfe, 0xbe, 0xac, 0x6f, 0xbe, 0x3d, 0xfd, 0x04, 0x7f, 0x3e,
  0xb0, 0x6c, 0x33, 0x3e, 0xe9, 0x95, 0xd6, 0x3c, 0x61, 0x40, 0x0e, 0x3e,
  0x40, 0x85, 0x0a, 0xbe, 0x42, 0xc4, 0x5a, 0xbc, 0x6f, 0x04, 0xdf, 0xbd,
  0xc0, 0x95, 0x3d, 0x3c, 0xe3, 0x9f, 0x89, 0xbe, 0x0f, 0x53, 0x0d, 0xbe,
  0x46, 0xec, 0x13, 0x3e, 0x5a, 0xfa, 0xbe, 0x3c, 0xad, 0xe0, 0xc1, 0xbd,
  0xe3, 0x44, 0xb5, 0xbd, 0x3f, 0x45, 0xe2, 0x3e, 0x05, 0x00, 0x84, 0xbe,
  0xe0, 0xd7, 0xba, 0xbd, 0xa5, 0x19, 0xbc, 0xbd, 0xf6, 0xc2, 0xa0, 0x3e,
  0x04, 0xdc, 0x8c, 0x3e, 0xbe, 0xd4, 0xb0, 0xbe, 0x03, 0x9b, 0x01, 0x3e,
  0x53, 0xb8, 0xa7, 0xbc, 0xe8, 0x0b, 0x8b, 0xbd, 0x8b, 0x53, 0x02, 0xbf,
  0x8b, 0xce, 0x2d, 0xbd, 0x35, 0xeb, 0x20, 0xbd, 0xa0, 0x0e, 0xbc, 0x3e,
  0x25, 0x3b, 0x9d, 0x3d, 0x30, 0xf7, 0x6b, 0x3e, 0x71, 0x49, 0x59, 0x3e,
  0xb4, 0x67, 0x87, 0x3a, 0xe0, 0x60, 0xd0, 0xbc, 0xc6, 0x63, 0x4b, 0xbc,
  0x6a, 0x12, 0xb3, 0x3d, 0x94, 0x3c, 0x58, 0xbd, 0x42, 0x5e, 0x2e, 0xbb,
  0x56, 0x52, 0xbb, 0xbd, 0xaf, 0xe4, 0xba, 0xbc, 0x3c, 0x08, 0x85, 0x3d,
  0x09, 0xca, 0x81, 0xbd, 0x65, 0x9b, 0x36, 0xbc, 0x0b, 0xfb, 0x49, 0x3d,
  0x03, 0x6f, 0x98, 0xbd, 0x79, 0x3b, 0x96, 0x3c, 0xbd, 0xe5, 0xae, 0x3a,
  0xa6, 0x5c, 0xb9, 0xbd, 0x9e, 0xe0, 0xff, 0xff, 0x10, 0x00, 0x00, 0x00,
  0x07, 0x00, 0x00, 0x00, 0x1c, 0x00, 0x00, 0x00, 0x38, 0x00, 0x00, 0x00,
  0x04, 0x00, 0x00, 0x00, 0x08, 0x00, 0x00, 0x00, 0x04, 0x00, 0x00, 0x00,
  0x03, 0x00, 0x00, 0x00, 0x01, 0x00, 0x00, 0x00, 0x18, 0x00, 0x00, 0x00,
  0x73, 0x65, 0x71, 0x75, 0x65, 0x6e, 0x74, 0x69, 0x61, 0x6c, 0x2f, 0x63,
  0x6f, 0x6e, 0x76, 0x32, 0x64, 0x2f, 0x43, 0x6f, 0x6e, 0x76, 0x32, 0x44,
  0x00, 0x00, 0x00, 0x00, 0x98, 0xe0, 0xff, 0xff, 0x8e, 0xe1, 0xff, 0xff,
  0x04, 0x00, 0x00, 0x00, 0x00, 0x01, 0x00, 0x00, 0x54, 0xbf, 0x5f, 0xbd,
  0xc5, 0x0d, 0xff, 0xbd, 0x5a, 0x10, 0xb1, 0xbe, 0x4a, 0x8a, 0xcc, 0x3c,
  0x4a, 0x46, 0x87, 0x3e, 0xc0, 0xfb, 0xcf, 0x3e, 0x14, 0xb8, 0x11, 0x3e,
  0xf4, 0x05, 0x72, 0x3b, 0x7e, 0x13, 0x8c, 0x3e, 0x46, 0xa7, 0xe7, 0x3d,
  0x78, 0xc8, 0xfd, 0xbd, 0x12, 0xbe, 0xe0, 0xbd, 0x70, 0xb0, 0xa6, 0xbe,
  0x40, 0xb8, 0x9b, 0xbe, 0xc8, 0x53, 0x30, 0xbe, 0x0a, 0xcc, 0x87, 0xbe,
  0xd9, 0xb1, 0xe2, 0xbd, 0xe8, 0x30, 0x01, 0xbd, 0x02, 0x1e, 0x6a, 0x3c,
  0x2c, 0x5d, 0x1b, 0xbd, 0x63, 0xdf, 0xe6, 0x3e, 0xdb, 0xc0, 0xdb, 0x3e,
  0x60, 0xda, 0xa0, 0x3e, 0xe1, 0xd9, 0x39, 0x3d, 0x8f, 0x55, 0x95, 0x3e,
  0x37, 0xac, 0x14, 0x3e, 0xf7, 0xc1, 0x8c, 0xbd, 0x15, 0xd4, 0xbf, 0xbd,
  0xf5, 0x28, 0x93, 0xbe, 0x8d, 0x4d, 0x56, 0xbe, 0x24, 0x85, 0x76, 0xbd,
  0x43, 0xbb, 0x12, 0xbe, 0xec, 0x0a, 0xf1, 0xbd, 0x9e, 0xb2, 0x1d, 0xbd,
  0x9f, 0xa1, 0x8b, 0x3d, 0xce, 0x16, 0x07, 0x3d, 0x43, 0xb9, 0xd3, 0x3e,
  0xdc, 0xbd, 0xb9, 0x3e, 0x27, 0x9f, 0xb3, 0x3e, 0x18, 0xd5, 0x9c, 0x3c,
  0x72, 0x2f, 0x71, 0x3e, 0xa0, 0x84, 0x21, 0x3e, 0x1c, 0xea, 0xb6, 0xbd,
  0x9b, 0xb4, 0x5f, 0xbd, 0xfc, 0x6a, 0x81, 0xbe, 0x1a, 0xb4, 0x46, 0xbe,
  0x4e, 0x05, 0x02, 0xbe, 0x6a, 0xa9, 0x7c, 0xbd, 0xea, 0x2b, 0xb9, 0xbd,
  0x48, 0x2f, 0x5b, 0xbe, 0x12, 0x0a, 0x2d, 0x3e, 0xc4, 0xce, 0xd2, 0xbd,
  0x51, 0x0d, 0xcd, 0x3e, 0x7b, 0x4a, 0x10, 0x3e, 0xb5, 0x68, 0xb2, 0x3e,
  0x2b, 0x4e, 0x4e, 0xbd, 0xc5, 0x45, 0x70, 0x3e, 0x36, 0x1d, 0x67, 0xbc,
  0x0a, 0xbe, 0x40, 0xbd, 0x37, 0x09, 0xeb, 0xbd, 0xce, 0xa1, 0xcf, 0xbe,
  0x89, 0x00, 0xe2, 0xbd, 0xf9, 0xc0, 0x04, 0xbd, 0xac, 0xef, 0x90, 0x3c,
  0xf6, 0xe1, 0xff, 0xff, 0x10, 0x00, 0x00, 0x00, 0x06, 0x00, 0x00, 0x00,
  0x14, 0x00, 0x00, 0x00, 0x30, 0x00, 0x00, 0x00, 0x02, 0x00, 0x00, 0x00,
  0x04, 0x00, 0x00, 0x00, 0x10, 0x00, 0x00, 0x00, 0x19, 0x00, 0x00, 0x00,
  0x73, 0x65, 0x71, 0x75, 0x65, 0x6e, 0x74, 0x69, 0x61, 0x6c, 0x2f, 0x64,
  0x65, 0x6e, 0x73, 0x65, 0x5f, 0x31, 0x2f, 0x4d, 0x61, 0x74, 0x4d, 0x75,
  0x6c, 0x00, 0x00, 0x00, 0xe8, 0xe1, 0xff, 0xff, 0xde, 0xe2, 0xff, 0xff,
  0x04, 0x00, 0x00, 0x00, 0x00, 0x1c, 0x00, 0x00, 0x1f, 0xd8, 0xb7, 0xbd,
  0x9c, 0xf2, 0xd4, 0x3d, 0x7f, 0x88, 0x41, 0xbe, 0x61, 0x5e, 0x5c, 0xbd,
  0x1e, 0x2b, 0x8e, 0xbc, 0xb6, 0x4a, 0xd6, 0xbd, 0xb9, 0x07, 0xa0, 0xbe,
  0x0b, 0xf1, 0xa7, 0xbe, 0x8c, 0x41, 0xb4, 0xbe, 0x5f, 0x62, 0x6e, 0x3d,
  0xc0, 0x7a, 0x1a, 0xbe, 0x50, 0xc6, 0x2d, 0x3e, 0x85, 0x7d, 0xbe, 0xbe,
  0x36, 0x57, 0x61, 0x3e, 0xbc, 0xcb, 0x96, 0xbe, 0x9c, 0xc4, 0x07, 0xbf,
  0xaf, 0x8a, 0x85, 0xbd, 0x82, 0x0b, 0x84, 0xbc, 0x05, 0x72, 0x78, 0xbe,
  0x03, 0x7b, 0x5b, 0xbc, 0x8b, 0xea, 0xd9, 0x3c, 0x2b, 0x01, 0x2a, 0xbe,
  0x81, 0x53, 0x86, 0x3e, 0x94, 0xbd, 0xcd, 0x3d, 0x51, 0xac, 0xef, 0xbd,
  0xa3, 0x94, 0xb4, 0xbd, 0x18, 0x0f, 0x7e, 0x3a, 0x2c, 0x9a, 0x0c, 0xbe,
  0xf0, 0x32, 0xa5, 0xbe, 0xb8, 0x8f, 0xd9, 0x3d, 0x95, 0xa1, 0xc6, 0x3d,
  0x31, 0x99, 0xaa, 0xbd, 0xba, 0x91, 0x86, 0xbe, 0xb6, 0x7e, 0x04, 0x3e,
  0xbf, 0x7a, 0xbe, 0xbd, 0x9d, 0x85, 0xe1, 0xbd, 0x00, 0x7a, 0x21, 0x3e,
  0xda, 0x2d, 0x29, 0x3e, 0xaa, 0xa8, 0x0c, 0x3e, 0x48, 0xc7, 0xd1, 0xbd,
  0xcd, 0xe7, 0xd3, 0xbd, 0x3e, 0xdb, 0x01, 0x3d, 0xc6, 0xe9, 0x42, 0xbd,
  0xa9, 0xc1, 0xb7, 0x3d, 0xe0, 0xdf, 0x3e, 0xbe, 0xe3, 0x94, 0x9f, 0xbe,
  0x50, 0x7f, 0x59, 0x3e, 0xda, 0xb3, 0x22, 0xbe, 0x6a, 0x48, 0xde, 0xbd,
  0x0e, 0x21, 0xb9, 0x3e, 0xdb, 0x58, 0xdc, 0x3c, 0x13, 0x80, 0xbb, 0x3d,
  0x0d, 0xc9, 0xfd, 0x3d, 0x2e, 0x79, 0x90, 0x3e, 0x5b, 0x6d, 0x5f, 0x3a,
  0xf7, 0x1a, 0xc1, 0xbd, 0xed, 0xfb, 0x7b, 0xbd, 0xa4, 0x66, 0x16, 0x3e,
  0x9a, 0x91, 0xdc, 0x3b, 0x96, 0x19, 0xb6, 0x3d, 0x6e, 0xc5, 0xe2, 0xbc,
  0x9e, 0x1c, 0xad, 0x3d, 0x53, 0x2f, 0xdf, 0xbc, 0x6e, 0xcd, 0xaf, 0xbe,
  0xc9, 0xf9, 0xb7, 0x3d, 0x22, 0x31, 0xa6, 0x3e, 0x64, 0x9e, 0xbb, 0xbe,
  0x0d, 0x4f, 0x51, 0xbd, 0x36, 0x46, 0x24, 0xbc, 0xe7, 0x84, 0xcf, 0x3d,
  0x1a, 0x49, 0xdc, 0x3d, 0x43, 0xc0, 0x59, 0xbe, 0x08, 0x5f, 0xc5, 0xbd,
  0x6a, 0x18, 0x32, 0x3e, 0xeb, 0x9e, 0x8d, 0x3d, 0x96, 0xe0, 0xf2, 0xbd,
  0x2d, 0x76, 0x30, 0x3d, 0xb1, 0x18, 0x8f, 0x3e, 0xec, 0x35, 0xb2, 0x3d,
  0x8e, 0xb6, 0x9d, 0xbe, 0x38, 0x8c, 0x52, 0x3c, 0x29, 0xa4, 0x1a, 0x3e,
  0xe7, 0x6d, 0x54, 0xbe, 0x26, 0x2a, 0x7a, 0xbd, 0x0c, 0x1b, 0xc4, 0x3c,
  0xfd, 0x10, 0xc5, 0x3d, 0xa2, 0x96, 0x0f, 0xbc, 0xb7, 0x0b, 0x4a, 0xbe,
  0xa7, 0x2a, 0x48, 0x3e, 0xd0, 0x28, 0x2e, 0xbd, 0xee, 0x4f, 0xc2, 0x3d,
  0x15, 0x98, 0x54, 0xbe, 0xcf, 0x83, 0xa4, 0x3d, 0xb6, 0x37, 0xad, 0x3c,
  0xd9, 0x41, 0xc1, 0xbd, 0xea, 0xdb, 0x66, 0xbe, 0xa9, 0x72, 0x0c, 0xbe,
  0x47, 0x20, 0x28, 0x3d, 0xf6, 0xbf, 0x1c, 0xbe, 0xc2, 0x56, 0xec, 0xba,
  0xc0, 0x7c, 0x28, 0xbc, 0x47, 0xb7, 0x84, 0xbd, 0x42, 0x04, 0xf6, 0xbd,
  0xd6, 0xe5, 0xa1, 0xbc, 0x89, 0xba, 0xb3, 0xbd, 0x90, 0x51, 0x0f, 0xbc,
  0xe7, 0x60, 0x0a, 0xbc, 0x80, 0x1d, 0x87, 0x3d, 0x30, 0x11, 0x44, 0xbc,
  0xf9, 0x08, 0x2a, 0x3c, 0xe3, 0x11, 0x1b, 0xbc, 0x19, 0x7e, 0x11, 0xbe,
  0xa2, 0xba, 0xa9, 0x3c, 0x29, 0xbe, 0x15, 0xbf, 0x70, 0x0a, 0x88, 0xbd,
  0x0d, 0x31, 0x01, 0x3c, 0xea, 0xaf, 0x1e, 0xbf, 0xda, 0x66, 0x94, 0xbd,
  0x17, 0x40, 0xd6, 0xbd, 0x3e, 0x2a, 0x82, 0xbd, 0xb8, 0x38, 0xfb, 0xbc,
  0x06, 0xb8, 0x0d, 0xbd, 0x37, 0x62, 0xae, 0x3d, 0xbd, 0x10, 0xc0, 0xba,
  0xdb, 0x3e, 0x73, 0x3d, 0xe0, 0x20, 0xc1, 0xbd, 0xfb, 0x76, 0x8d, 0xbe,
  0xae, 0x16, 0xd6, 0xbd, 0xb5, 0x44, 0x39, 0x3d, 0xd9, 0x96, 0xad, 0xbe,
  0x41, 0x42, 0x37, 0xbb, 0xd4, 0x6d, 0xb2, 0xbd, 0x45, 0x5b, 0x33, 0xbd,
  0x0c, 0x80, 0x36, 0xbc, 0x25, 0xd3, 0x15, 0x3c, 0x7b, 0x81, 0x5b, 0xbe,
  0x75, 0x70, 0x8b, 0x3d, 0xc1, 0x9a, 0x6c, 0x3e, 0x34, 0xaa, 0x87, 0xbd,
  0xc7, 0x27, 0x6b, 0xbe, 0x3f, 0x1f, 0xfe, 0x3c, 0x3f, 0x7b, 0x00, 0x3d,
  0x7d, 0x84, 0x68, 0xbe, 0x7c, 0x34, 0x27, 0x3c, 0x03, 0xdd, 0x6d, 0xbe,
  0x46, 0xde, 0x9c, 0xbe, 0x8b, 0x1c, 0x78, 0xbe, 0x0a, 0x18, 0x17, 0xbd,
  0x4b, 0x83, 0x30, 0xbe, 0x52, 0xa1, 0x08, 0x3d, 0xd0, 0x20, 0xbe, 0xbd,
  0xc3, 0xc5, 0xa7, 0xbe, 0xed, 0xbe, 0xd2, 0x3d, 0x9d, 0xc3, 0x0a, 0xbe,
  0xc1, 0x01, 0x1a, 0xbe, 0xc0, 0x87, 0xbb, 0xbd, 0x2d, 0xcf, 0x47, 0x3d,
  0xca, 0x98, 0xde, 0xbe, 0x53, 0x52, 0xa2, 0xbd, 0xf1, 0xf4, 0x4f, 0xbd,
  0x02, 0x94, 0x8a, 0x3d, 0x82, 0xcc, 0xf5, 0xbe, 0xd1, 0x3a, 0xba, 0xbe,
  0x6b, 0xd8, 0x59, 0xbd, 0x4b, 0xef, 0x93, 0xbe, 0x78, 0x80, 0x49, 0x3d,
  0xde, 0x59, 0x0d, 0x3e, 0xe9, 0x19, 0xd2, 0xbd, 0x8a, 0x3b, 0xae, 0xbb,
  0x5a, 0x57, 0x80, 0xbe, 0xae, 0x5e, 0x8c, 0xbd, 0x2b, 0xfe, 0x34, 0xbe,
  0x49, 0xb9, 0x8d, 0x3c, 0xe3, 0x3c, 0xe3, 0xbe, 0xcb, 0x8a, 0x1e, 0xbe,
  0xb5, 0x21, 0x53, 0xbe, 0x97, 0xc5, 0xed, 0xbd, 0xdd, 0x18, 0x1d, 0xbf,
  0xa7, 0xea, 0x3d, 0x3e, 0xcd, 0x10, 0x03, 0x3d, 0x18, 0x09, 0x4b, 0x3d,
  0xb1, 0xbb, 0x8a, 0xbe, 0xf7, 0x49, 0xab, 0xbd, 0x1a, 0x1d, 0x2e, 0x3e,
  0x7b, 0x19, 0x4e, 0x3c, 0x63, 0x7f, 0xb8, 0x3c, 0x97, 0x2c, 0x8c, 0x3d,
  0x76, 0x29, 0xd1, 0x3d, 0xba, 0xd3, 0x58, 0xbc, 0xfb, 0x68, 0xbf, 0xbe,
  0xa8, 0x2c, 0x66, 0xbc, 0xbb, 0x50, 0xd6, 0x3c, 0xd4, 0x87, 0xb4, 0xbd,
  0x5d, 0xb5, 0xdb, 0x3c, 0x0c, 0x86, 0x11, 0x3d, 0x27, 0x67, 0xf7, 0xbc,
  0x9b, 0x08, 0xcc, 0xbb, 0xa4, 0x49, 0x79, 0xbe, 0xd5, 0xe6, 0xc4, 0x3c,
  0x55, 0xfd, 0x87, 0x3d, 0x4c, 0xcd, 0xb1, 0x3c, 0xd7, 0xe1, 0x9a, 0x3d,
  0x1f, 0x74, 0xd6, 0xbd, 0x39, 0x04, 0x89, 0x3d, 0x86, 0x3a, 0x87, 0xbd,
  0xdf, 0xa1, 0x02, 0xbe, 0xcc, 0x6e, 0x21, 0x3e, 0xd1, 0x9e, 0xa5, 0x3d,
  0x5d, 0x6c, 0xf9, 0x3d, 0xd5, 0x69, 0xda, 0x3c, 0xf9, 0xd1, 0xab, 0x3d,
  0xf9, 0x54, 0xa1, 0xbd, 0x15, 0xd4, 0x9f, 0x3d, 0x01, 0x85, 0x28, 0xbd,
  0x58, 0xfa, 0x8d, 0xbd, 0xda, 0x55, 0x1a, 0x3e, 0x34, 0x6b, 0x02, 0xbd,
  0x0a, 0xdc, 0xa0, 0x3c, 0xe5, 0xc7, 0xd7, 0xbd, 0xae, 0xe2, 0xe2, 0x3d,
  0x12, 0x16, 0x0f, 0xbe, 0xc2, 0x25, 0xcf, 0xbc, 0x28, 0xf2, 0x94, 0x3c,
  0xc1, 0xd0, 0x14, 0x3d, 0x2a, 0x8c, 0x0a, 0xbe, 0x5f, 0x95, 0x8c, 0xbd,
  0x5f, 0x66, 0x54, 0xbe, 0xc0, 0xb2, 0xa1, 0xbe, 0x70, 0x7e, 0x79, 0xbd,
  0x1a, 0x67, 0x1e, 0xbe, 0x02, 0x51, 0xf0, 0xbd, 0xc8, 0x62, 0x0f, 0x3e,
  0xf1, 0xb9, 0x91, 0xbd, 0xda, 0xb4, 0xd4, 0xbc, 0x37, 0xbb, 0xed, 0xbd,
  0xa3, 0x53, 0x4a, 0xbe, 0x2b, 0x6b, 0xfe, 0x3d, 0xf1, 0x0e, 0x93, 0xbd,
  0xb5, 0xdc, 0x24, 0x3d, 0x53, 0x2f, 0x9a, 0xbe, 0xf4, 0x5c, 0x9d, 0xbd,
  0x91, 0x4c, 0x46, 0x3d, 0xae, 0xbe, 0x81, 0xbe, 0xc5, 0xdf, 0x7c, 0xbe,
  0xa1, 0x12, 0x89, 0xbe, 0x39, 0x91, 0xe3, 0xbc, 0x0c, 0x3f, 0xda, 0x3c,
  0x8d, 0x21, 0x0c, 0x3e, 0xff, 0xbe, 0xff, 0xbd, 0x2e, 0x68, 0x00, 0x3d,
  0x07, 0x82, 0x6d, 0x3d, 0x2f, 0x44, 0x1c, 0x3e, 0xd9, 0xea, 0x10, 0xbe,
  0xe7, 0x5b, 0xd1, 0xbd, 0x39, 0x80, 0xe7, 0xbd, 0x6c, 0x09, 0x64, 0xbe,
  0xeb, 0x2c, 0x69, 0xbe, 0xd9, 0xd5, 0xc0, 0x3b, 0x61, 0x81, 0xe0, 0xbc,
  0x5c, 0x8b, 0x5f, 0x3b, 0x80, 0x6c, 0x7e, 0xbd, 0xd2, 0x9b, 0x27, 0x3e,
  0xb7, 0x6e, 0x13, 0xbe, 0x58, 0x87, 0xc6, 0x3d, 0x7e, 0x16, 0xb1, 0x3d,
  0xc3, 0x62, 0x2b, 0x3d, 0xf2, 0xfd, 0xe1, 0xbd, 0x35, 0x29, 0x02, 0xbe,
  0x59, 0x7a, 0x39, 0xbd, 0xfd, 0xfd, 0x8f, 0xbe, 0xea, 0xf3, 0x84, 0xbe,
  0x7d, 0x67, 0xa5, 0x3b, 0x5e, 0x93, 0x1d, 0xbe, 0x07, 0x1d, 0xb6, 0xbd,
  0x73, 0x0e, 0xaf, 0xbe, 0x89, 0xbf, 0x24, 0xbe, 0x88, 0x5a, 0x91, 0xbd,
  0xbe, 0xa9, 0x81, 0xbe, 0x7f, 0xef, 0x9f, 0xbd, 0x77, 0x31, 0x37, 0x3e,
  0x52, 0x4a, 0xdd, 0xbd, 0xdc, 0x5d, 0x90, 0x3d, 0x7a, 0x6d, 0x28, 0x3e,
  0x7e, 0x8f, 0x9e, 0xbd, 0xeb, 0x11, 0xe7, 0x3d, 0xea, 0x73, 0xbf, 0xbe,
  0x8b, 0xcf, 0xc8, 0xbd, 0x06, 0x28, 0x62, 0xbe, 0x51, 0xa4, 0x48, 0xbe,
  0x47, 0x69, 0x5b, 0xbd, 0x6d, 0xf3, 0xef, 0x3d, 0x9a, 0x5a, 0x90, 0xbe,
  0x43, 0x47, 0x2b, 0xba, 0x2f, 0xae, 0xc7, 0x3c, 0x6f, 0xc3, 0x16, 0x3e,
  0x44, 0xcc, 0x9b, 0x3c, 0x19, 0x14, 0xef, 0xbd, 0x32, 0xa3, 0xe1, 0x3d,
  0x41, 0x3f, 0xcf, 0xbc, 0xba, 0xb6, 0x2b, 0xbe, 0x25, 0x94, 0x9d, 0x3d,
  0xb6, 0xb8, 0x48, 0xbe, 0x68, 0x9d, 0xbf, 0xbd, 0x4b, 0xa2, 0x63, 0xbe,
  0xbb, 0xfb, 0x5a, 0xbd, 0xd8, 0x39, 0x14, 0xbe, 0xc0, 0x84, 0x88, 0x3d,
  0x40, 0xa5, 0x80, 0x3d, 0x9f, 0x8e, 0xc4, 0xbd, 0x5a, 0x94, 0x6f, 0xbb,
  0xb9, 0xe2, 0x3e, 0x3e, 0xeb, 0xa9, 0x9b, 0x3d, 0x9d, 0x14, 0xae, 0xbc,
  0x6c, 0x65, 0xa0, 0x3d, 0x37, 0xa0, 0xab, 0x3d, 0x81, 0x05, 0x60, 0xbd,
  0x0f, 0x68, 0x83, 0x3c, 0x21, 0x1e, 0x16, 0xbe, 0xb4, 0x75, 0x16, 0x3d,
  0x0c, 0xbd, 0x78, 0xbe, 0x5f, 0xd8, 0x84, 0xbe, 0xe6, 0x69, 0xf2, 0xbd,
  0xa2, 0x54, 0x62, 0xbe, 0xea, 0x58, 0x43, 0xbd, 0xe6, 0x4e, 0xae, 0xbd,
  0x17, 0x09, 0xbc, 0xbd, 0xd8, 0xf6, 0x06, 0x3e, 0x42, 0xbb, 0x5d, 0xbc,
  0x7b, 0x20, 0x47, 0x3e, 0x1e, 0xd7, 0x18, 0xbe, 0x9b, 0x24, 0xd8, 0xbd,
  0x86, 0x87, 0x35, 0xbe, 0x99, 0x90, 0x39, 0xbe, 0xeb, 0x45, 0x93, 0xbe,
  0x5d, 0x31, 0x3e, 0xbe, 0x68, 0x76, 0x65, 0x3c, 0xec, 0x20, 0xe6, 0xbd,
  0xb2, 0x42, 0x43, 0xbd, 0xa1, 0xfe, 0x5d, 0x3d, 0xb3, 0xa7, 0xb4, 0xbb,
  0x67, 0x77, 0xc4, 0x3c, 0xc0, 0x69, 0x8f, 0xbd, 0xa0, 0xa2, 0x37, 0xbe,
  0xc2, 0x71, 0x01, 0xbf, 0x16, 0xcc, 0xca, 0xbe, 0x61, 0x7c, 0xd1, 0x3d,
  0x62, 0xac, 0x55, 0xbe, 0xdb, 0x8c, 0xa5, 0xbd, 0x99, 0x5b, 0xa9, 0xbd,
  0xae, 0xad, 0xa5, 0x3c, 0x68, 0x14, 0x8f, 0xbe, 0xd3, 0x14, 0x69, 0xbe,
  0xf7, 0x12, 0x8c, 0x3e, 0xaf, 0x63, 0xcd, 0xbd, 0x24, 0x98, 0x70, 0x3e,
  0x16, 0xe9, 0xf6, 0xbc, 0xb7, 0x74, 0x49, 0x3d, 0x56, 0x4e, 0xa1, 0xbd,
  0xa6, 0x90, 0x0a, 0xbe, 0x8f, 0x4d, 0xde, 0x3d, 0x37, 0x5e, 0x7b, 0x3e,
  0xc3, 0x8b, 0xe7, 0x3d, 0x17, 0x0d, 0x2d, 0xbe, 0xa0, 0x48, 0x0e, 0x3e,
  0xfd, 0x7c, 0x3b, 0xbd, 0x27, 0xba, 0x1e, 0x3d, 0xa4, 0x9b, 0xca, 0x3d,
  0x3d, 0x01, 0x57, 0xbe, 0x1e, 0x19, 0xcb, 0x3a, 0xa3, 0xaf, 0x4a, 0x3c,
  0x6c, 0xef, 0x89, 0xbc, 0xad, 0x57, 0x3a, 0xbd, 0xb9, 0x96, 0xc7, 0x3c,
  0x50, 0xad, 0x4d, 0xbd, 0xe8, 0xe8, 0x57, 0xbc, 0xc3, 0x6f, 0x38, 0xbd,
  0x6c, 0x43, 0x67, 0x3e, 0xc7, 0xcb, 0x6d, 0x3d, 0xff, 0x21, 0x37, 0xbe,
  0x5e, 0xc9, 0x90, 0x3d, 0x15, 0x1c, 0x9e, 0xbc, 0x88, 0x4e, 0x31, 0x3d,
  0x05, 0x2d, 0xe7, 0x3d, 0xba, 0xe8, 0x92, 0xbe, 0x08, 0x9a, 0xb3, 0xbd,
  0x61, 0x96, 0xbf, 0x3c, 0x3f, 0xc9, 0xab, 0x3c, 0x25, 0x07, 0x5c, 0xbd,
  0xc5, 0x6a, 0x0e, 0x3d, 0x7d, 0x6f, 0xbb, 0x3c, 0xef, 0x7e, 0x1e, 0xbe,
  0x27, 0xe3, 0x93, 0xbe, 0x93, 0xf3, 0x14, 0xbd, 0xcb, 0xbc, 0xee, 0x3d,
  0xcb, 0x0e, 0xb2, 0xbd, 0x6a, 0x7b, 0x5a, 0xbe, 0x46, 0xfe, 0x8c, 0x3b,
  0xf6, 0xf9, 0x60, 0xbc, 0x46, 0x4b, 0x11, 0x3e, 0x73, 0xc7, 0x06, 0xbf,
  0x28, 0x0e, 0x6a, 0x3d, 0xf9, 0xb7, 0x49, 0x3d, 0x54, 0x0d, 0x44, 0x3e,
  0xfc, 0xdd, 0x9e, 0xbd, 0x0f, 0xd3, 0xcb, 0x3c, 0x00, 0x14, 0x26, 0x3d,
  0x13, 0x16, 0x0e, 0xbe, 0xa1, 0x3c, 0x01, 0xbf, 0x08, 0xfb, 0xa5, 0xbe,
  0xb0, 0xb5, 0xb9, 0x3d, 0xb4, 0xfb, 0x22, 0xbe, 0x4a, 0xca, 0xcc, 0xbe,
  0x35, 0x40, 0xae, 0xbc, 0x7a, 0x7d, 0x18, 0x3d, 0x59, 0x52, 0x23, 0x3e,
  0x8e, 0x08, 0x29, 0xbf, 0x5b, 0xfa, 0x8e, 0x3d, 0x26, 0xe5, 0xf3, 0xb9,
  0x81, 0x89, 0x4e, 0x3d, 0x2d, 0x72, 0xe6, 0xbc, 0xf9, 0x67, 0x49, 0x3d,
  0x76, 0x0e, 0x83, 0x3d, 0xc4, 0xaa, 0x5c, 0xbe, 0x51, 0x23, 0xb1, 0xbe,
  0x44, 0x3c, 0x93, 0xbe, 0x56, 0x69, 0x23, 0x3e, 0xef, 0x07, 0x93, 0xbe,
  0xbd, 0xb5, 0x0c, 0xbe, 0xc0, 0xeb, 0xcf, 0x3b, 0x8f, 0x02, 0xb7, 0x3d,
  0xc8, 0x84, 0xca, 0xbe, 0xbf, 0xf1, 0x42, 0xbe, 0xb1, 0x91, 0x14, 0x3e,
  0xcc, 0xd4, 0x60, 0xbd, 0xb5, 0x9c, 0x89, 0x3c, 0x43, 0x60, 0xe5, 0xbc,
  0xd0, 0x33, 0x1b, 0x3d, 0x2d, 0x52, 0xd8, 0x3c, 0x21, 0x94, 0xec, 0xbd,
  0xb6, 0x66, 0xfc, 0xbe, 0xa2, 0x40, 0x36, 0x3d, 0xc7, 0x98, 0xa4, 0x3d,
  0x0f, 0x40, 0x85, 0xbe, 0xf6, 0xbb, 0xd6, 0xbe, 0xbd, 0x35, 0x55, 0xbc,
  0x7a, 0x37, 0xd0, 0xbc, 0xce, 0x34, 0x1f, 0xbe, 0x22, 0xb3, 0x10, 0xbe,
  0xed, 0x01, 0xf9, 0xbb, 0x48, 0x5d, 0x0d, 0x3c, 0x76, 0x2e, 0x1e, 0x3d,
  0x56, 0x0f, 0xa8, 0x3c, 0x23, 0xba, 0x0b, 0xbd, 0xa9, 0x9c, 0x80, 0xbd,
  0x2d, 0x5d, 0xa9, 0x3e, 0x83, 0x36, 0x00, 0x3d, 0xf2, 0x62, 0xaa, 0x3d,
  0x09, 0x2b, 0x79, 0xbc, 0x5c, 0x3f, 0xae, 0x3d, 0x6f, 0xd5, 0x64, 0x3d,
  0x45, 0xee, 0xb8, 0x3d, 0xf4, 0x26, 0x16, 0xbe, 0x31, 0xaa, 0x2c, 0x3e,
  0x04, 0x50, 0xe6, 0x3d, 0x51, 0xa9, 0x51, 0xbe, 0xe7, 0x6b, 0x12, 0x3e,
  0xaa, 0x2e, 0xea, 0x3c, 0xd2, 0x3c, 0x80, 0xbd, 0x67, 0x0c, 0xec, 0xbd,
  0x18, 0xd0, 0x10, 0x3e, 0x0e, 0x83, 0xc7, 0x3e, 0x52, 0x93, 0xea, 0xbe,
  0xd0, 0x4c, 0x9d, 0xbe, 0x57, 0xd6, 0x96, 0xba, 0x6f, 0xc5, 0x9e, 0x3e,
  0xe1, 0xfe, 0xa0, 0xbe, 0xd6, 0xbf, 0x53, 0x3d, 0x97, 0xd1, 0xa3, 0xbb,
  0x99, 0xbf, 0x52, 0xbd, 0x55, 0x40, 0xbb, 0xbd, 0x24, 0x0e, 0x0a, 0xbe,
  0x00, 0x78, 0x21, 0xbe, 0xdc, 0x23, 0xc6, 0xbd, 0x9b, 0xd8, 0x9a, 0xbb,
  0x9a, 0xa2, 0x84, 0xbe, 0x72, 0x1f, 0x45, 0x3c, 0x61, 0x09, 0x1b, 0x3e,
  0x49, 0xd4, 0xc2, 0xbe, 0xe3, 0x0f, 0x95, 0xbc, 0x0d, 0xb2, 0x5f, 0x3d,
  0xad, 0xc3, 0xd3, 0x3e, 0x6a, 0x5c, 0x74, 0xbe, 0x09, 0x3e, 0x5a, 0x3d,
  0x4e, 0xb2, 0xe8, 0x3a, 0xcf, 0xfc, 0x05, 0xbd, 0x04, 0x59, 0x27, 0x3c,
  0x20, 0x03, 0x23, 0xbe, 0xcf, 0x0e, 0x81, 0xbe, 0x8a, 0x49, 0x8b, 0xb9,
  0x0f, 0xcf, 0x8a, 0xbd, 0x7c, 0x71, 0xa0, 0xbe, 0x90, 0xd4, 0x9a, 0x3d,
  0x9d, 0xed, 0xa0, 0x3e, 0x75, 0xa7, 0x3a, 0xbe, 0xde, 0x1b, 0x36, 0xbd,
  0xbf, 0x48, 0x41, 0xbe, 0xdd, 0x37, 0x5b, 0x3e, 0xa9, 0x25, 0xa3, 0xbe,
  0x42, 0x86, 0x9a, 0xbd, 0x43, 0xa5, 0x55, 0x3d, 0x1b, 0xef, 0xa4, 0xbc,
  0x48, 0x2e, 0x15, 0xbe, 0xb0, 0x83, 0xd8, 0xbd, 0x4a, 0xa3, 0x60, 0xbe,
  0x75, 0x4a, 0x70, 0xbd, 0xcb, 0xed, 0x93, 0xbd, 0xeb, 0x4d, 0xfc, 0xbe,
  0x59, 0x48, 0xa0, 0xbd, 0x37, 0x4e, 0xe7, 0x3e, 0x6c, 0xe6, 0x3c, 0xbe,
  0xfa, 0xe0, 0x6f, 0xbc, 0xb6, 0xfd, 0x3f, 0x3d, 0x4d, 0xbd, 0xbb, 0x3e,
  0x46, 0xfe, 0x8d, 0xbd, 0x0d, 0x27, 0xb8, 0x3d, 0x9b, 0xbe, 0x80, 0x3d,
  0xed, 0xbf, 0x3e, 0xbd, 0xc9, 0x6b, 0x29, 0xbe, 0x37, 0x18, 0x87, 0xbe,
  0x18, 0x24, 0xb1, 0xbe, 0xe6, 0x84, 0xc9, 0xbe, 0x94, 0xb1, 0x6e, 0xbc,
  0xfc, 0x1b, 0x41, 0xbe, 0xc9, 0x98, 0x8c, 0xbd, 0x6d, 0xab, 0xa0, 0x3e,
  0x30, 0xcc, 0x72, 0x3e, 0xe9, 0x88, 0xdc, 0xbd, 0x29, 0xb4, 0xab, 0xbd,
  0xe7, 0xd6, 0x53, 0x3e, 0x17, 0xb4, 0x1c, 0xbd, 0xbf, 0xe3, 0x54, 0xbc,
  0x56, 0x97, 0x03, 0xbd, 0xa6, 0x76, 0x12, 0xbe, 0xd8, 0xde, 0x80, 0xbe,
  0x36, 0x1b, 0xbf, 0x3d, 0x28, 0xf8, 0xfa, 0xbd, 0xaa, 0xe3, 0x84, 0x3d,
  0x8d, 0xf5, 0x57, 0x3c, 0xf0, 0xc7, 0x27, 0x3c, 0xd6, 0x6b, 0x96, 0x3d,
  0x19, 0x70, 0x69, 0xbd, 0x4a, 0x65, 0xa6, 0x3e, 0x74, 0x5a, 0x32, 0x3b,
  0x16, 0x06, 0x20, 0xbd, 0xc7, 0xa0, 0x54, 0x3e, 0x16, 0xaf, 0x7e, 0x3e,
  0x6e, 0x00, 0xc6, 0x3c, 0x65, 0xd0, 0x19, 0x3c, 0xa4, 0x9a, 0xba, 0x3c,
  0x17, 0xd9, 0x90, 0x3d, 0x04, 0xc2, 0xa0, 0xbd, 0xec, 0xcc, 0x7b, 0xbf,
  0x55, 0xcc, 0xd8, 0xbc, 0xd3, 0xcb, 0x1e, 0xbe, 0xda, 0x91, 0xd4, 0xbe,
  0x1a, 0x7f, 0x1b, 0xbf, 0x82, 0x59, 0x4a, 0xbe, 0xf6, 0xfa, 0x07, 0xbe,
  0xad, 0xfb, 0xbd, 0xbd, 0xd2, 0x91, 0xb2, 0xbe, 0xc1, 0xd9, 0x1d, 0xbe,
  0x45, 0x2a, 0x1f, 0x3d, 0x2b, 0x17, 0x5c, 0x3d, 0xd2, 0x69, 0xde, 0xbd,
  0xec, 0xec, 0xdd, 0xbd, 0x27, 0x21, 0x2c, 0xbe, 0x2c, 0x25, 0x69, 0x3f,
  0x6a, 0x08, 0xad, 0xbe, 0xb2, 0xd9, 0x85, 0xbd, 0x17, 0xa2, 0xff, 0xbe,
  0xf9, 0x7b, 0x49, 0xbe, 0x8a, 0x3d, 0xd8, 0xbe, 0x74, 0x6f, 0x0b, 0xbd,
  0x6d, 0xbf, 0x70, 0x3e, 0x14, 0x23, 0x05, 0xbd, 0x92, 0xcb, 0x2f, 0xbe,
  0xc0, 0xbe, 0xde, 0xbb, 0x52, 0xdc, 0xaa, 0xbe, 0x05, 0xea, 0xc4, 0x3b,
  0x79, 0x10, 0x1f, 0xbe, 0xc7, 0xa0, 0xf9, 0xbd, 0x02, 0x58, 0x34, 0xbe,
  0x37, 0xaf, 0x33, 0x3f, 0xa6, 0xd7, 0x71, 0xbe, 0x1c, 0x8f, 0x19, 0x3e,
  0x80, 0x48, 0xd1, 0xbe, 0x36, 0x25, 0x86, 0xbe, 0x59, 0x72, 0xe4, 0xbe,
  0x1f, 0xa6, 0x4b, 0xbe, 0xd9, 0xaa, 0xc0, 0x3d, 0x90, 0x49, 0x10, 0xbe,
  0xc1, 0x0d, 0x1e, 0xbe, 0x40, 0xf1, 0x78, 0xbe, 0x9f, 0x72, 0xa0, 0xbe,
  0x66, 0xe7, 0x3a, 0x3b, 0x47, 0xfb, 0x84, 0xbe, 0x75, 0x15, 0x3e, 0xbe,
  0xd1, 0x9b, 0xed, 0xbd, 0x82, 0x59, 0x53, 0x3f, 0x61, 0x3e, 0xef, 0xbe,
  0xf8, 0x33, 0xec, 0xbd, 0x5a, 0xee, 0xe4, 0xbe, 0xc5, 0x17, 0xb3, 0xbe,
  0x8a, 0x25, 0x3f, 0xbf, 0x9a, 0x85, 0x3d, 0x3e, 0xbe, 0xa8, 0xa4, 0xbb,
  0x26, 0xf6, 0x3c, 0xbe, 0x77, 0xa7, 0x5c, 0x3d, 0xf4, 0xe4, 0x04, 0xbe,
  0xcb, 0x48, 0x01, 0x3e, 0x9d, 0xa3, 0xaa, 0xbd, 0x49, 0xb4, 0xe0, 0xbe,
  0xc8, 0x9b, 0x60, 0xbe, 0xbd, 0xe2, 0x8f, 0xbe, 0x5e, 0xf3, 0x8a, 0x3e,
  0x75, 0x12, 0x8a, 0xbd, 0x33, 0x8a, 0x89, 0xbd, 0xdc, 0xd9, 0xf0, 0xbe,
  0xd2, 0xbe, 0xad, 0xbc, 0xad, 0x36, 0x1b, 0xbf, 0x98, 0xf4, 0x3b, 0xbd,
  0x79, 0xb6, 0x9b, 0x3e, 0x0b, 0xa4, 0x6b, 0x3e, 0x27, 0x53, 0x28, 0xbe,
  0x65, 0x53, 0x12, 0xbe, 0xd6, 0x22, 0x83, 0x3e, 0xda, 0x53, 0x11, 0xbe,
  0x39, 0x2a, 0x4b, 0xbe, 0x2e, 0x25, 0x07, 0x3c, 0x5a, 0xeb, 0x0f, 0x3b,
  0x88, 0x12, 0xc0, 0x3d, 0xd1, 0x85, 0xb6, 0x3e, 0x9d, 0x5a, 0x03, 0xbd,
  0xa3, 0x33, 0xae, 0xbe, 0x71, 0xe5, 0xae, 0xbc, 0xae, 0x68, 0xfa, 0xbe,
  0x3c, 0x07, 0xeb, 0xbd, 0x21, 0xe7, 0xcf, 0x3e, 0x78, 0x9c, 0x0f, 0x3e,
  0xac, 0x0c, 0xa9, 0xbd, 0x23, 0x0d, 0xb5, 0x3d, 0x90, 0x21, 0x73, 0x3e,
  0xbf, 0xd6, 0xd3, 0xbe, 0x47, 0x53, 0x28, 0xbe, 0x97, 0x56, 0xe7, 0x3e,
  0x98, 0x26, 0x3e, 0x3d, 0x3a, 0x82, 0x1c, 0xbc, 0xec, 0x62, 0x83, 0x3e,
  0xc1, 0x03, 0x14, 0xbd, 0x75, 0xe3, 0xb5, 0xbc, 0xad, 0x34, 0x02, 0xbb,
  0x84, 0xe6, 0x15, 0xbe, 0x0a, 0x05, 0xa6, 0x3d, 0x8f, 0x83, 0x2c, 0x3e,
  0xb7, 0x52, 0x9c, 0xbd, 0x74, 0xd8, 0x16, 0xbd, 0x5d, 0xe1, 0x46, 0x3d,
  0x39, 0x54, 0x92, 0x3e, 0xb3, 0x35, 0x11, 0xbf, 0xf4, 0x65, 0xba, 0xbd,
  0x9b, 0xfd, 0xe0, 0xbb, 0xc8, 0x58, 0xaf, 0x3c, 0xb6, 0xf2, 0x86, 0x3d,
  0x73, 0x8f, 0xe5, 0xbd, 0x9f, 0x29, 0x42, 0x3c, 0x72, 0x79, 0x17, 0x3e,
  0xdc, 0xfe, 0x31, 0xbe, 0xb2, 0xed, 0x10, 0x3d, 0x6f, 0x03, 0xb6, 0x3e,
  0xc4, 0x29, 0xd3, 0x3d, 0xbf, 0xc4, 0x2a, 0xbd, 0xfa, 0x7b, 0x15, 0xbe,
  0x24, 0x97, 0xb8, 0x3e, 0xf7, 0xab, 0x21, 0xbe, 0xe0, 0xb3, 0x71, 0xbd,
  0x12, 0x3e, 0xa0, 0xbd, 0xca, 0xad, 0x81, 0xbe, 0xb8, 0xd0, 0x26, 0xbd,
  0x72, 0xf6, 0x2a, 0x3e, 0xa8, 0xe8, 0xba, 0xbd, 0xb1, 0xe0, 0x51, 0xbb,
  0x01, 0x91, 0x05, 0x3e, 0x68, 0xdd, 0xe6, 0xbe, 0xf1, 0xa1, 0x23, 0x3e,
  0xe1, 0x84, 0xcf, 0x3e, 0xa4, 0x50, 0x51, 0x3e, 0xef, 0x3b, 0x65, 0x3e,
  0x42, 0x79, 0x0e, 0xbe, 0x88, 0xc4, 0xd0, 0x3e, 0x89, 0x23, 0x80, 0x3e,
  0x51, 0x2b, 0xaa, 0x3d, 0x8c, 0x21, 0x56, 0xbd, 0xa4, 0x35, 0x2f, 0xbd,
  0x1b, 0xf5, 0x12, 0xbe, 0x69, 0x82, 0x19, 0x3d, 0x28, 0x78, 0x6d, 0xbe,
  0x29, 0xdf, 0x62, 0x3e, 0xfd, 0x8e, 0x7b, 0xbd, 0x9c, 0x63, 0xa7, 0xbe,
  0x57, 0xf1, 0xc4, 0x3d, 0xc9, 0xb7, 0xeb, 0x3e, 0xdb, 0x04, 0x55, 0x3e,
  0xb1, 0x84, 0x2c, 0x3e, 0xb9, 0xd6, 0x45, 0xbd, 0xb0, 0x1c, 0x66, 0x3e,
  0xaa, 0x7d, 0x06, 0xbe, 0x23, 0x20, 0x9c, 0x3b, 0xa4, 0x8d, 0xfa, 0x3d,
  0xf7, 0x19, 0x71, 0x3d, 0xcb, 0x6f, 0x2a, 0x3c, 0x0e, 0xec, 0x42, 0xbe,
  0xf6, 0xa5, 0x8c, 0xbe, 0xc3, 0x72, 0x29, 0xbc, 0xb8, 0x8e, 0x08, 0xbd,
  0x55, 0x59, 0xab, 0xbe, 0x4d, 0xfa, 0x25, 0x3e, 0x3e, 0x4e, 0x49, 0x3e,
  0xd7, 0x2b, 0xa4, 0x3d, 0xb7, 0x54, 0x7d, 0xbc, 0xd8, 0xdf, 0x3b, 0x3a,
  0x54, 0xcf, 0x8e, 0x3e, 0x29, 0x00, 0x17, 0xbe, 0x31, 0x1a, 0xca, 0x3d,
  0xcb, 0xe3, 0xaf, 0x3c, 0x26, 0xe6, 0x45, 0xbe, 0xf1, 0x81, 0xad, 0x3a,
  0x94, 0x21, 0xd0, 0xbe, 0xad, 0x21, 0xcd, 0x3d, 0x1e, 0xbe, 0x0d, 0x3d,
  0x99, 0xda, 0xc4, 0xbc, 0xd3, 0xd9, 0x9d, 0xbe, 0x9f, 0x98, 0x4e, 0x3d,
  0xd4, 0xaa, 0xef, 0x3e, 0xed, 0xb7, 0x78, 0xbd, 0x23, 0x36, 0x02, 0x3d,
  0xfa, 0x45, 0xa1, 0xbc, 0x0d, 0xaa, 0x8d, 0x3e, 0x8a, 0x0b, 0x0e, 0xbd,
  0x0f, 0xe4, 0x72, 0x3d, 0xee, 0xdc, 0x16, 0xbe, 0xc2, 0x12, 0xd5, 0xbd,
  0xca, 0x91, 0x6b, 0xbc, 0x8b, 0x98, 0x86, 0xbd, 0x1b, 0x6f, 0x15, 0xbf,
  0x67, 0x84, 0xa2, 0x3e, 0x5e, 0x75, 0x51, 0x3d, 0x36, 0xaf, 0xc5, 0xbe,
  0x2b, 0x3f, 0xfe, 0xbd, 0xeb, 0x1e, 0xfd, 0x3e, 0x1c, 0x0c, 0xb6, 0xbd,
  0x55, 0xa4, 0xb7, 0xbd, 0x13, 0x8c, 0x3c, 0x3d, 0x7a, 0xbb, 0xd5, 0x3e,
  0x53, 0xb9, 0x51, 0xbe, 0xbc, 0x4a, 0xb8, 0x3d, 0xfa, 0x73, 0x20, 0xbe,
  0xf2, 0x6e, 0x53, 0xbc, 0x0d, 0x46, 0x27, 0xbd, 0x34, 0xb2, 0x1d, 0xbd,
  0x57, 0xd2, 0x90, 0xbe, 0x13, 0xd6, 0x03, 0x3e, 0x3d, 0xf5, 0x5a, 0x3c,
  0x91, 0xe6, 0xc4, 0x39, 0x2a, 0x43, 0x62, 0xba, 0x3b, 0x43, 0x97, 0x3e,
  0x98, 0x73, 0x02, 0xbf, 0x17, 0xe6, 0x1c, 0xbe, 0xaf, 0xad, 0x20, 0xbd,
  0x75, 0x6f, 0xa4, 0x3e, 0xd9, 0xca, 0x5f, 0xbf, 0x18, 0x0e, 0xe4, 0x3d,
  0xd7, 0xaf, 0x42, 0x3c, 0xc3, 0x93, 0x27, 0xbd, 0x1b, 0xce, 0x97, 0xbd,
  0xb6, 0x95, 0xdf, 0xbe, 0x9d, 0xbd, 0x36, 0x3d, 0x63, 0x93, 0x98, 0x3d,
  0x50, 0xe9, 0xb9, 0xbe, 0x31, 0x5a, 0xc4, 0xbb, 0x5f, 0x39, 0x93, 0xbd,
  0x26, 0xad, 0xfb, 0x3d, 0x7b, 0xb7, 0xda, 0x3d, 0x1f, 0x06, 0xf2, 0x3d,
  0x4b, 0xc4, 0x3e, 0x3d, 0x8b, 0xe5, 0x47, 0x3d, 0x8c, 0x5e, 0xc2, 0x3d,
  0x7d, 0x71, 0x53, 0xbe, 0x96, 0xe4, 0x2c, 0xbe, 0xba, 0x93, 0x3c, 0x3e,
  0x04, 0x9e, 0x1c, 0x3d, 0x29, 0x40, 0x22, 0xbf, 0x2d, 0x89, 0xf8, 0x3d,
  0x24, 0x44, 0x81, 0xbb, 0x1a, 0xd3, 0x8c, 0xbd, 0x63, 0x12, 0x4d, 0x3b,
  0x9a, 0x1c, 0x15, 0x3e, 0xab, 0x52, 0xab, 0xbd, 0x2d, 0xf6, 0xda, 0xbe,
  0xc5, 0x3f, 0x76, 0xbe, 0x81, 0x03, 0xc4, 0xbc, 0x19, 0xbd, 0x5f, 0x3d,
  0x1d, 0x18, 0x6e, 0x3c, 0x50, 0x3f, 0x99, 0xbe, 0xdc, 0xc0, 0x7f, 0x3d,
  0xb1, 0x00, 0x28, 0x3e, 0x65, 0x30, 0x62, 0x3d, 0x50, 0x49, 0x2c, 0xbe,
  0x34, 0x26, 0x4d, 0xbe, 0xf1, 0x16, 0xad, 0xbd, 0xf1, 0x27, 0x21, 0xbd,
  0x8b, 0x58, 0x0d, 0xbe, 0x74, 0x09, 0xef, 0xbd, 0x23, 0x59, 0xc8, 0xbc,
  0xe2, 0x23, 0x94, 0xbe, 0xc0, 0xb0, 0x04, 0xbe, 0x03, 0x18, 0x84, 0x3d,
  0xf6, 0xc3, 0xea, 0xbd, 0x5d, 0xd2, 0xac, 0xbd, 0x30, 0x52, 0xa7, 0xbe,
  0x85, 0xcc, 0x8e, 0x3b, 0x91, 0x32, 0x3e, 0xbe, 0x37, 0xf6, 0xf7, 0xbd,
  0xb8, 0x89, 0x65, 0xbe, 0x8c, 0x08, 0xb9, 0xbe, 0x56, 0x47, 0x96, 0x3d,
  0xbb, 0x4b, 0xbb, 0xbd, 0x1b, 0xe3, 0x32, 0xbe, 0x39, 0xd6, 0xe2, 0xbc,
  0xf5, 0xd4, 0x2f, 0x3c, 0x1d, 0xb6, 0x8f, 0x3c, 0x23, 0x4a, 0x05, 0x3d,
  0xe4, 0x5b, 0x56, 0xbe, 0x3a, 0x5a, 0x97, 0x3d, 0xdc, 0xf6, 0x02, 0xbe,
  0x52, 0xdf, 0x86, 0xbe, 0xa2, 0x57, 0x16, 0xbe, 0xef, 0xd9, 0x06, 0xbe,
  0x9d, 0x84, 0xa4, 0xbd, 0x52, 0xaa, 0x60, 0xbe, 0x05, 0xc2, 0x3e, 0xbe,
  0x91, 0x72, 0x40, 0xbe, 0x2a, 0x00, 0x85, 0x3d, 0xa5, 0x3a, 0x8e, 0xbd,
  0x63, 0xf4, 0x5f, 0xbe, 0x0f, 0x20, 0xd0, 0xbd, 0x69, 0x6f, 0x82, 0x3d,
  0x62, 0xd1, 0x1a, 0xbc, 0xa0, 0xe6, 0x4e, 0xbe, 0xea, 0xda, 0x7a, 0xbd,
  0xeb, 0x51, 0xe5, 0xbd, 0x13, 0xab, 0x68, 0xbe, 0x30, 0x1a, 0x88, 0xbe,
  0x75, 0x9e, 0x53, 0x3d, 0xf8, 0x38, 0x2a, 0x3d, 0x4c, 0x5b, 0xeb, 0x3d,
  0x89, 0xb9, 0xb5, 0xbc, 0x9d, 0x1b, 0xb7, 0xbe, 0x32, 0x3b, 0xab, 0x3c,
  0x7e, 0xef, 0xf5, 0xbd, 0xf0, 0xbb, 0x6d, 0xbe, 0x98, 0x0f, 0xa8, 0xbd,
  0xf2, 0x3f, 0xf4, 0xbd, 0x88, 0x02, 0x44, 0x3e, 0x6c, 0x47, 0x8e, 0xbd,
  0x10, 0x7a, 0x8d, 0x3b, 0x9f, 0xe2, 0xa7, 0xbc, 0x19, 0x9b, 0x6c, 0xbe,
  0x2e, 0xec, 0xbe, 0xbd, 0x5e, 0xc9, 0x25, 0xbe, 0x2a, 0x36, 0x61, 0x3c,
  0xa0, 0x0e, 0xb6, 0xbd, 0x7c, 0xe0, 0x48, 0xbe, 0xe0, 0x71, 0xad, 0xbe,
  0x05, 0x2f, 0xab, 0x3d, 0xb1, 0x6e, 0x12, 0xbe, 0x42, 0x53, 0xec, 0xbd,
  0xdd, 0xc2, 0x21, 0xbd, 0x9e, 0xb5, 0x41, 0xbe, 0x34, 0xba, 0x82, 0xbd,
  0xa4, 0x95, 0x40, 0xbe, 0x36, 0x97, 0xa9, 0xbd, 0x5c, 0xa6, 0x64, 0xbd,
  0xd9, 0x7e, 0x61, 0xbc, 0xd7, 0xd2, 0x53, 0xbc, 0xca, 0x1f, 0xf0, 0xbc,
  0x57, 0x13, 0xd1, 0xbd, 0xb2, 0xa9, 0x8a, 0xbb, 0x26, 0xef, 0xa2, 0x3d,
  0x75, 0xb3, 0x8c, 0xbd, 0xe8, 0x40, 0x9b, 0xbd, 0xeb, 0xb1, 0xdb, 0x3c,
  0xdf, 0xb6, 0x07, 0xbe, 0xcf, 0x7a, 0x0c, 0xbf, 0x3f, 0x13, 0xe1, 0xbc,
  0x22, 0x25, 0x4b, 0x3d, 0x98, 0x11, 0x55, 0x3d, 0x76, 0xd7, 0x88, 0xbe,
  0xee, 0x56, 0x01, 0x3e, 0xf7, 0x3c, 0x54, 0xbd, 0x69, 0xb3, 0x11, 0x3e,
  0x0c, 0xf8, 0x4f, 0x3e, 0x52, 0xd7, 0x31, 0x3d, 0xfe, 0x04, 0xed, 0x3d,
  0x32, 0x12, 0x18, 0x3d, 0xf2, 0x6a, 0x4a, 0xbe, 0x9f, 0x5a, 0x9f, 0xbe,
  0xd1, 0x02, 0xc5, 0x3c, 0xe0, 0x58, 0xa1, 0xbd, 0x0d, 0x4e, 0x64, 0xbe,
  0x61, 0xdd, 0xd5, 0x3e, 0x33, 0x82, 0x88, 0xbe, 0xc1, 0xac, 0xd3, 0x3c,
  0xb8, 0x89, 0x4a, 0xbe, 0x7a, 0xda, 0xdb, 0x3e, 0x57, 0x51, 0xea, 0xbd,
  0x95, 0x09, 0xbb, 0x3d, 0xc3, 0x58, 0xa0, 0x3d, 0x35, 0xd3, 0x78, 0xbe,
  0x15, 0x58, 0x2a, 0x3f, 0xf0, 0x82, 0xa6, 0x3d, 0xac, 0xce, 0x46, 0xbe,
  0xeb, 0x54, 0x71, 0xbe, 0xce, 0x6e, 0xef, 0x3b, 0xbc, 0x42, 0x9e, 0x3d,
  0x87, 0xa3, 0x57, 0xbe, 0x26, 0xb5, 0x66, 0x3e, 0x7b, 0x91, 0xa1, 0xbe,
  0x66, 0xaf, 0xd7, 0x3c, 0x57, 0x95, 0x48, 0xbe, 0x7a, 0xd4, 0x03, 0x3f,
  0xee, 0x76, 0x26, 0xbe, 0xdc, 0xe3, 0x1b, 0x3d, 0x07, 0x03, 0xce, 0xbc,
  0x41, 0xbd, 0x0b, 0xbf, 0xed, 0xfd, 0x7a, 0x3f, 0x29, 0xd2, 0x67, 0x3d,
  0x28, 0x3a, 0x96, 0xbc, 0xdf, 0xe5, 0x08, 0xbe, 0xc9, 0x6a, 0x0d, 0xbd,
  0xf1, 0xb6, 0xe4, 0x3d, 0xc0, 0x9c, 0x83, 0xbd, 0xee, 0x78, 0x88, 0x3d,
  0x27, 0xac, 0x45, 0xbe, 0x88, 0xa7, 0x7d, 0x3d, 0x2e, 0xe7, 0x9c, 0xbd,
  0x9f, 0xaa, 0x0f, 0x3c, 0x90, 0x76, 0x68, 0xbe, 0xf7, 0x86, 0x8b, 0xbc,
  0xa3, 0x39, 0xff, 0xbd, 0x58, 0x3b, 0x37, 0xbf, 0xd6, 0xbd, 0xe4, 0x3f,
  0x1c, 0x8a, 0xa4, 0x3c, 0xe4, 0x63, 0x10, 0xbe, 0x54, 0x35, 0x91, 0xbd,
  0x05, 0x87, 0xaa, 0x3d, 0x36, 0x10, 0x4b, 0x3e, 0x21, 0xc0, 0x49, 0x3d,
  0x85, 0x93, 0xaa, 0x3e, 0xfb, 0xa0, 0xdb, 0x3c, 0x65, 0x21, 0x21, 0x3e,
  0xf2, 0x63, 0x81, 0xbe, 0x05, 0x31, 0x94, 0x3e, 0xf5, 0xe6, 0x89, 0xbe,
  0xd4, 0x6f, 0xc0, 0x3d, 0x4a, 0x9e, 0x41, 0x3d, 0xd1, 0xc0, 0xcf, 0xbe,
  0x5a, 0x15, 0x7b, 0x3f, 0x56, 0x12, 0x78, 0x3e, 0xf5, 0x15, 0xb3, 0xbd,
  0xba, 0xb8, 0xcc, 0xbd, 0xb4, 0x2f, 0x82, 0x3d, 0x69, 0xbe, 0x00, 0x3d,
  0x3b, 0x1a, 0x0f, 0xbe, 0x77, 0xf0, 0xdf, 0x3e, 0x56, 0x2e, 0x56, 0x3e,
  0x25, 0xa8, 0x14, 0xbd, 0xcc, 0x4c, 0x94, 0xbe, 0x09, 0x95, 0x62, 0x3e,
  0xd1, 0xdf, 0x2b, 0xbe, 0x5e, 0xf3, 0x30, 0x3e, 0x19, 0x69, 0x6e, 0x3e,
  0x89, 0x4b, 0xf2, 0xbb, 0x2a, 0x34, 0x24, 0xbd, 0x2c, 0x65, 0x0b, 0x3e,
  0x78, 0x58, 0x44, 0xbe, 0x14, 0x7f, 0x97, 0xbe, 0x25, 0xed, 0x42, 0x3d,
  0x24, 0x2a, 0x1e, 0xbe, 0x54, 0x03, 0xb5, 0x3d, 0x6a, 0xdc, 0x5b, 0x3e,
  0x45, 0x07, 0xea, 0xbd, 0xd1, 0xd3, 0xf1, 0x3b, 0xf1, 0x0f, 0x3a, 0xbe,
  0x85, 0xe9, 0xa0, 0x3d, 0xcb, 0x01, 0xd5, 0xbc, 0x47, 0xbc, 0x2d, 0x3c,
  0x50, 0xc8, 0x3b, 0xbd, 0xcd, 0x4b, 0xda, 0xbd, 0xe9, 0x7c, 0xb7, 0xbc,
  0xbc, 0x8c, 0xca, 0x3c, 0x4c, 0x9d, 0x33, 0x3d, 0xb9, 0xc6, 0x5d, 0xbd,
  0xd0, 0x80, 0x8a, 0x3d, 0x32, 0x01, 0xfe, 0x3d, 0xfb, 0xd0, 0x8f, 0xbd,
  0x73, 0x2f, 0xd6, 0xbc, 0x86, 0xa1, 0x6c, 0x3c, 0x86, 0x21, 0x4f, 0x3e,
  0xc2, 0xf4, 0x94, 0x3d, 0xa2, 0x2a, 0x18, 0x3e, 0x8f, 0xf9, 0x90, 0x3c,
  0x10, 0x11, 0x5d, 0xbd, 0xf6, 0x6e, 0x08, 0x3e, 0x49, 0xfe, 0xaf, 0x3c,
  0x5c, 0xef, 0xe5, 0x3e, 0xa7, 0xa5, 0x96, 0x3d, 0xa2, 0x5f, 0x92, 0x3e,
  0x05, 0x73, 0xf0, 0xbb, 0x65, 0xc5, 0x87, 0x3c, 0xbe, 0xf2, 0x81, 0x3d,
  0x2e, 0x25, 0x7f, 0xbd, 0x53, 0xa3, 0x98, 0xbe, 0x79, 0x3f, 0x16, 0x3c,
  0xf2, 0x8a, 0xb0, 0x3d, 0x2d, 0x4d, 0x07, 0x3c, 0x36, 0x03, 0x2a, 0x3d,
  0xa3, 0xab, 0x02, 0x3c, 0xb5, 0x91, 0x70, 0x3d, 0xbc, 0xae, 0x9e, 0xbc,
  0xe0, 0x69, 0x24, 0x3c, 0xd4, 0x86, 0xcd, 0x3e, 0x54, 0x72, 0x9c, 0xbd,
  0x77, 0xc0, 0x8b, 0x3e, 0xc7, 0xba, 0xf2, 0x3c, 0xa4, 0xe6, 0x4d, 0xbe,
  0xde, 0xcf, 0x04, 0xbe, 0xbb, 0xfe, 0xa6, 0xbd, 0x6d, 0xf0, 0x0e, 0xbe,
  0xfb, 0x81, 0xa5, 0x3d, 0x68, 0x89, 0xde, 0xbc, 0xb6, 0xc4, 0x33, 0xbe,
  0x12, 0x4b, 0x01, 0xbe, 0x21, 0xdc, 0x12, 0xbd, 0xa9, 0xd9, 0x9a, 0xbd,
  0x96, 0xae, 0xeb, 0x3b, 0x22, 0x78, 0xa9, 0xbd, 0x2c, 0xfa, 0x7d, 0xbd,
  0x80, 0x3f, 0x55, 0xbe, 0xb2, 0x56, 0x23, 0xbe, 0x85, 0x6d, 0xfc, 0x3c,
  0x02, 0xd4, 0xd6, 0xbe, 0xe8, 0x33, 0xb8, 0xbd, 0xc0, 0x85, 0x22, 0xbe,
  0x21, 0xbb, 0xc2, 0xbd, 0xfc, 0xb9, 0x31, 0xbd, 0xbc, 0x66, 0x98, 0xbe,
  0xd3, 0x3c, 0x7c, 0x3c, 0x87, 0xcd, 0x79, 0xbe, 0xa4, 0x69, 0x02, 0xbc,
  0xea, 0x47, 0xde, 0x3b, 0x6f, 0xe7, 0x0f, 0xbc, 0x40, 0xdf, 0x87, 0xbe,
  0xf9, 0x20, 0x0d, 0xbd, 0x62, 0x61, 0x1b, 0xbe, 0x3d, 0x58, 0xa4, 0x3e,
  0xe5, 0x7b, 0xb7, 0x3d, 0x71, 0xde, 0x5e, 0xbd, 0x04, 0xf9, 0x42, 0xbe,
  0xb5, 0x18, 0x1b, 0xbe, 0x3e, 0xb5, 0x39, 0xbe, 0xae, 0xaf, 0x8e, 0xbd,
  0xa1, 0x59, 0x0e, 0xbf, 0x96, 0x95, 0x41, 0xbd, 0x2b, 0x13, 0x23, 0xbe,
  0x55, 0xb4, 0x83, 0xbc, 0xb1, 0x08, 0x3e, 0xbd, 0x4a, 0x00, 0x24, 0xbd,
  0xee, 0x0e, 0x62, 0xbe, 0x2b, 0x3c, 0x5d, 0x3e, 0xe6, 0xc3, 0xa6, 0xbe,
  0xed, 0x3c, 0x80, 0x3e, 0xd0, 0x84, 0xc3, 0x3d, 0xa7, 0xa9, 0x28, 0x3d,
  0xd9, 0x6d, 0x3e, 0xbe, 0x75, 0xea, 0xac, 0xbe, 0xf4, 0x38, 0x92, 0xbe,
  0x51, 0xed, 0x4c, 0xbe, 0x37, 0x39, 0x04, 0x3e, 0x11, 0x58, 0xc9, 0xbd,
  0x4f, 0x09, 0xc7, 0xbd, 0x3d, 0xe8, 0x87, 0xbd, 0xe7, 0x68, 0x5a, 0xbe,
  0xa6, 0x61, 0x32, 0x3d, 0xb4, 0x34, 0x0b, 0x3c, 0x8f, 0xc6, 0x8c, 0x3e,
  0xe0, 0xa5, 0x04, 0x3c, 0x8a, 0xd2, 0x08, 0x3e, 0x2b, 0x4e, 0x2e, 0x3d,
  0x22, 0x5f, 0x87, 0x3c, 0x84, 0x41, 0x1f, 0xbd, 0xdb, 0x87, 0xcf, 0xbd,
  0x87, 0x85, 0x65, 0xbe, 0x7b, 0x99, 0xe7, 0x3c, 0xf0, 0x49, 0xed, 0x3d,
  0xf5, 0x37, 0x94, 0xbd, 0x4e, 0xb5, 0x59, 0xbe, 0xb0, 0x8a, 0xc5, 0xbc,
  0xa1, 0x41, 0x4e, 0xbc, 0xd5, 0x71, 0xff, 0x3c, 0x11, 0x2d, 0x3b, 0xbc,
  0x23, 0xca, 0x79, 0xbe, 0x7a, 0x6c, 0xa0, 0xbe, 0x6f, 0x6f, 0x5a, 0xbe,
  0x36, 0x9b, 0x12, 0xbf, 0x53, 0x90, 0xd5, 0x3c, 0xf5, 0xac, 0x31, 0xbe,
  0xfe, 0xff, 0x8a, 0x3e, 0x99, 0x83, 0x06, 0xbd, 0x11, 0xea, 0xb3, 0x3c,
  0x71, 0xfe, 0x8f, 0xbe, 0x66, 0x3b, 0xb0, 0x3d, 0x01, 0xcf, 0xb4, 0xbe,
  0x5f, 0x25, 0x2c, 0xbe, 0xf8, 0xd0, 0x87, 0xbd, 0xcb, 0x3d, 0xb8, 0xbd,
  0xce, 0x18, 0x36, 0x3e, 0xd6, 0x94, 0x79, 0xbe, 0x78, 0xaf, 0x4a, 0xbd,
  0x7d, 0x27, 0x94, 0xbe, 0xee, 0xb6, 0x4d, 0x3e, 0xf0, 0x96, 0x00, 0x3e,
  0x10, 0x9c, 0xa2, 0xbe, 0xfc, 0x91, 0x8b, 0x3c, 0xc1, 0x9c, 0xea, 0xbd,
  0x03, 0xa0, 0xc6, 0xbd, 0xe3, 0x82, 0x92, 0xbe, 0x64, 0x28, 0x24, 0x3e,
  0xe0, 0xbd, 0x10, 0x3e, 0x54, 0xe8, 0x3c, 0x3d, 0xf3, 0xd7, 0xc1, 0xbd,
  0xcd, 0xd3, 0x51, 0xbe, 0x0f, 0xfd, 0xc5, 0x3d, 0xa2, 0x2e, 0x38, 0xbe,
  0x3f, 0x00, 0x42, 0xbc, 0x6c, 0xe4, 0x42, 0xbd, 0xa0, 0xed, 0x53, 0x3d,
  0xa3, 0x81, 0xef, 0x3d, 0xbc, 0x3f, 0x9f, 0xbe, 0x43, 0x00, 0x74, 0x3e,
  0x9d, 0x8a, 0x85, 0x3e, 0xe4, 0x06, 0x3a, 0xbb, 0xe5, 0xde, 0xb6, 0xbd,
  0x85, 0xb9, 0xc0, 0xba, 0xfb, 0x29, 0x79, 0xbd, 0xce, 0x01, 0x6d, 0xbc,
  0x70, 0x76, 0x24, 0x3c, 0xfb, 0x45, 0x2c, 0xbd, 0xdf, 0xe9, 0x0a, 0x3e,
  0x22, 0x64, 0xbd, 0x3e, 0xa3, 0x6f, 0xf7, 0xbd, 0x25, 0x58, 0xbe, 0xbd,
  0xfc, 0x80, 0x01, 0x3e, 0xbf, 0xb6, 0x09, 0x3e, 0x35, 0x95, 0x90, 0xbe,
  0xa4, 0x19, 0x6c, 0x3e, 0x02, 0xa2, 0x98, 0x3e, 0x77, 0x48, 0x8c, 0x3e,
  0x23, 0xb8, 0x91, 0x3d, 0x89, 0x4a, 0xde, 0x3d, 0x0b, 0x6f, 0xc7, 0x3d,
  0x18, 0x1a, 0x6d, 0x3e, 0xfa, 0xc6, 0xb0, 0x3d, 0xb5, 0xd0, 0x53, 0x3d,
  0xb7, 0x2b, 0x42, 0x3e, 0x93, 0xb2, 0x36, 0xbe, 0x44, 0xc5, 0xa9, 0xbd,
  0xc5, 0x57, 0x58, 0xbe, 0x1f, 0x69, 0x17, 0xbe, 0xc3, 0xaa, 0x69, 0x3d,
  0x52, 0x51, 0x33, 0xbe, 0x48, 0xe7, 0x9e, 0x3e, 0x1a, 0xe5, 0x86, 0x3d,
  0x50, 0x0c, 0x41, 0xbe, 0x62, 0x52, 0x93, 0xbd, 0x5d, 0x6f, 0x20, 0x3e,
  0x29, 0x4e, 0xff, 0xbd, 0x36, 0xc0, 0x62, 0x3c, 0x49, 0xca, 0x0d, 0xbe,
  0x11, 0x1e, 0x35, 0xbe, 0x16, 0x2a, 0x34, 0x3e, 0x3a, 0x33, 0x10, 0xba,
  0x03, 0x82, 0x4e, 0xbe, 0x58, 0xcd, 0x3b, 0xbe, 0x64, 0xe1, 0x78, 0xbc,
  0xef, 0x9d, 0x0a, 0x3d, 0x82, 0x5a, 0xc0, 0xbd, 0x51, 0xe5, 0x1e, 0x3e,
  0xf7, 0x39, 0xe2, 0x3c, 0x3e, 0xfb, 0x03, 0x3e, 0x3c, 0xe1, 0x20, 0x3d,
  0x02, 0xd1, 0x2d, 0x3d, 0xcc, 0x48, 0x67, 0xbe, 0x8e, 0xa2, 0xd4, 0xbd,
  0x8e, 0xf4, 0x60, 0xbd, 0xb0, 0x5a, 0xe5, 0xbd, 0xa9, 0x72, 0x5b, 0x3e,
  0x66, 0x51, 0xb2, 0xbd, 0xdb, 0x19, 0x67, 0xbe, 0xab, 0x97, 0x92, 0xbe,
  0xf1, 0x04, 0xd1, 0xbd, 0x74, 0x3b, 0x67, 0xbd, 0x20, 0xd1, 0x2e, 0xbe,
  0x16, 0x3c, 0x28, 0x3e, 0x76, 0xfc, 0x80, 0xbd, 0x34, 0xad, 0x47, 0xbe,
  0xdb, 0x5d, 0x1b, 0x3d, 0x15, 0x9f, 0xb0, 0xbc, 0xf2, 0x0e, 0x5f, 0xbe,
  0x41, 0x23, 0xda, 0xbe, 0x44, 0xa1, 0x94, 0xbe, 0xb0, 0xf6, 0x8c, 0xbe,
  0xd9, 0x2c, 0x5a, 0x3e, 0x05, 0x73, 0xa3, 0xbe, 0x12, 0x8d, 0x96, 0xbe,
  0xa9, 0x0b, 0xbc, 0x3d, 0x37, 0x30, 0x3c, 0xbe, 0x61, 0x55, 0xe5, 0xbc,
  0x12, 0x7d, 0x8d, 0x3e, 0xd3, 0xec, 0x08, 0xbe, 0x8f, 0x39, 0x77, 0xbe,
  0x23, 0x4d, 0x99, 0xbe, 0x31, 0x24, 0x8c, 0x3c, 0xbe, 0xd3, 0x26, 0xbe,
  0x03, 0xf4, 0x03, 0x3e, 0x77, 0x58, 0x19, 0xbe, 0x60, 0x6e, 0xcc, 0xbe,
  0x92, 0x1f, 0x96, 0xbe, 0x67, 0x04, 0x67, 0xbd, 0xc3, 0xd3, 0x2b, 0x3f,
  0xf5, 0x32, 0xcd, 0x3c, 0x50, 0xec, 0xf7, 0x3e, 0xc3, 0x8e, 0xe2, 0x3c,
  0xb2, 0x69, 0x7a, 0xbd, 0xa2, 0xf1, 0xb8, 0x3d, 0xf8, 0x49, 0x59, 0xbe,
  0xba, 0xb0, 0x31, 0xbe, 0x50, 0xfc, 0xb8, 0x3e, 0x82, 0x23, 0x84, 0x3d,
  0x6c, 0x7e, 0x86, 0xbd, 0x30, 0x65, 0x50, 0x3e, 0xef, 0x76, 0xe2, 0x3d,
  0xe8, 0x0f, 0xf9, 0xbd, 0x6d, 0x0c, 0x0c, 0xbe, 0x98, 0x39, 0x01, 0x3e,
  0xd6, 0x4e, 0x96, 0x3e, 0x2a, 0x99, 0x72, 0xbe, 0x82, 0x8b, 0xed, 0x3e,
  0x02, 0xe3, 0xe3, 0x3c, 0xec, 0x40, 0x00, 0x3d, 0xf3, 0x2f, 0xe7, 0xbd,
  0xaf, 0x8a, 0xfa, 0xbd, 0x5c, 0x0e, 0x1c, 0x3e, 0xf3, 0x4d, 0xf9, 0x3e,
  0xa1, 0x4c, 0x13, 0x3e, 0x40, 0x09, 0xc7, 0xbd, 0x45, 0x8a, 0x18, 0x3e,
  0x8f, 0x7d, 0x4a, 0x3c, 0x1f, 0xe1, 0xc4, 0xbc, 0xc0, 0x7d, 0xf3, 0x3d,
  0xc3, 0x18, 0x6d, 0x3d, 0x93, 0x0f, 0x36, 0xbe, 0x1e, 0x64, 0x15, 0xbd,
  0xdd, 0xbd, 0x7a, 0xbc, 0xc5, 0x00, 0xe8, 0xbc, 0xd8, 0x1f, 0x8f, 0xbe,
  0x79, 0x70, 0x0c, 0xbe, 0x8b, 0xdf, 0x91, 0xbe, 0xe8, 0x91, 0x9c, 0xbe,
  0x17, 0x06, 0x6a, 0x3d, 0x14, 0x83, 0xc8, 0xbc, 0x3a, 0x2a, 0x55, 0xbe,
  0x60, 0xa1, 0xba, 0xbe, 0x02, 0xfc, 0x8f, 0xbc, 0xfa, 0x3c, 0x6a, 0xbd,
  0xd0, 0x00, 0xa7, 0x3d, 0xf3, 0xbc, 0x14, 0xbd, 0xbf, 0xe6, 0x90, 0xbe,
  0x5b, 0xfe, 0x37, 0xbe, 0xaf, 0xc1, 0x31, 0xbe, 0xa0, 0x56, 0xa6, 0x3d,
  0xad, 0x94, 0xca, 0xbe, 0xf1, 0xab, 0x83, 0xbd, 0x49, 0xd9, 0x62, 0xbc,
  0xa0, 0x89, 0x7b, 0xbe, 0xa7, 0x4e, 0xb0, 0xbb, 0x50, 0x35, 0x89, 0xbe,
  0x86, 0x90, 0x95, 0xbd, 0xeb, 0xe4, 0xd4, 0xbe, 0xe9, 0x8d, 0x3b, 0x3d,
  0x53, 0xb4, 0x06, 0xbe, 0x2e, 0x20, 0xdf, 0xbd, 0x4e, 0x96, 0xd8, 0x3c,
  0x5f, 0x01, 0x02, 0x3d, 0x9b, 0xc1, 0xb4, 0xbe, 0x26, 0x36, 0x12, 0x3e,
  0xf8, 0x4b, 0x3d, 0x3d, 0xc4, 0xe2, 0xe8, 0xbd, 0x5c, 0xc2, 0x38, 0xbe,
  0x8c, 0x02, 0x5a, 0x3d, 0x32, 0xb6, 0x8f, 0xbe, 0x3b, 0x6e, 0x94, 0xbd,
  0x28, 0xe1, 0xb2, 0xbe, 0xf0, 0xac, 0x41, 0xbe, 0x7a, 0x74, 0x4a, 0xbd,
  0x72, 0x0a, 0x08, 0xbe, 0x36, 0x5f, 0x61, 0xbe, 0x14, 0xda, 0x47, 0xbe,
  0xcc, 0xdb, 0xc0, 0x3b, 0xed, 0x10, 0xbf, 0xbd, 0x6a, 0xdd, 0x7b, 0xbe,
  0xf7, 0xcb, 0x66, 0xbd, 0xd1, 0xe2, 0x20, 0x3e, 0x93, 0x00, 0x51, 0x3e,
  0xbf, 0x18, 0xe0, 0x3d, 0xac, 0x1c, 0xb4, 0xbd, 0x12, 0x70, 0xe1, 0xbd,
  0x6c, 0xa2, 0xb7, 0xbd, 0xde, 0x27, 0xbc, 0x3d, 0xe3, 0x61, 0xc0, 0x3d,
  0x5e, 0x60, 0x78, 0xbc, 0xa2, 0x2a, 0xb1, 0x3d, 0x6d, 0xe1, 0xe3, 0xbd,
  0x51, 0xe3, 0xd4, 0xbd, 0xcb, 0x19, 0x51, 0xbe, 0xba, 0x0b, 0x18, 0xbe,
  0x74, 0xe3, 0x8b, 0xbe, 0x33, 0x33, 0x20, 0x3e, 0xff, 0xad, 0x03, 0xbe,
  0x8e, 0x51, 0x83, 0x3d, 0x4e, 0x55, 0x36, 0x3e, 0xcc, 0x88, 0x3b, 0x3e,
  0xdb, 0xef, 0x87, 0xbe, 0x41, 0x42, 0xad, 0xbe, 0xb3, 0x9b, 0xe4, 0x3d,
  0xb2, 0x75, 0x42, 0xbd, 0x98, 0x4a, 0x55, 0x3e, 0xdc, 0xff, 0x86, 0xbd,
  0xc3, 0x37, 0xf8, 0xbe, 0x59, 0x1d, 0x88, 0xbe, 0x39, 0xd1, 0x01, 0xbd,
  0x4a, 0x5a, 0xa7, 0x3e, 0x31, 0x71, 0xfa, 0xbd, 0x96, 0xc5, 0xc3, 0x3e,
  0x7c, 0x48, 0x9c, 0xbd, 0x2a, 0x6e, 0xb0, 0xbd, 0x99, 0x98, 0x0f, 0xbe,
  0x75, 0xa6, 0xa1, 0x3d, 0x2b, 0x12, 0x89, 0x3d, 0x4a, 0x4d, 0x9a, 0x3e,
  0x22, 0x40, 0x2b, 0x3e, 0x12, 0x9c, 0xb1, 0x3d, 0x8c, 0x1a, 0xbc, 0x3d,
  0x0c, 0x1d, 0x69, 0xbd, 0xab, 0x51, 0x1c, 0xbe, 0x7a, 0x87, 0xd5, 0xbb,
  0x34, 0xa6, 0x92, 0x3d, 0xfe, 0xaf, 0xb8, 0x3e, 0xde, 0xca, 0x37, 0x3e,
  0x0e, 0x20, 0x70, 0x3e, 0xbd, 0x54, 0xc7, 0x3d, 0xaf, 0x51, 0x1e, 0xbe,
  0xcc, 0x22, 0x94, 0xbd, 0x33, 0x89, 0x49, 0x3e, 0x1e, 0xbd, 0x0a, 0xbe,
  0xcd, 0xc3, 0x9b, 0x3e, 0x28, 0x6e, 0x4f, 0xbc, 0x2e, 0xa7, 0x0e, 0xbc,
  0xdf, 0xbc, 0x6b, 0xbe, 0x16, 0xa5, 0x91, 0x3d, 0x85, 0x36, 0xcc, 0x3d,
  0xd1, 0xd5, 0x02, 0x3d, 0x1a, 0x8d, 0x8e, 0x3d, 0xe1, 0x04, 0x9e, 0xbe,
  0x66, 0xef, 0x9e, 0xbd, 0x3b, 0xf2, 0x1c, 0xbf, 0x13, 0x21, 0x25, 0x3d,
  0x52, 0x2b, 0xbf, 0xbe, 0x6a, 0x08, 0x63, 0xbe, 0x65, 0x29, 0x2a, 0xbe,
  0xfc, 0xee, 0xce, 0xbc, 0x4b, 0x3c, 0x70, 0x3d, 0xd4, 0xa3, 0x3d, 0xbe,
  0x87, 0xc1, 0x43, 0x3d, 0x0f, 0xa2, 0xd7, 0xbe, 0xeb, 0x29, 0x89, 0x3d,
  0x21, 0x5f, 0x19, 0xbe, 0xe6, 0xe4, 0xe6, 0x3d, 0x59, 0xff, 0xb2, 0x3c,
  0x55, 0xc9, 0x67, 0xbe, 0xe1, 0x51, 0x6b, 0xbe, 0xf8, 0xf4, 0x84, 0xbe,
  0x36, 0x0f, 0x9c, 0xbc, 0x53, 0x7c, 0xb6, 0xbd, 0x5a, 0xa6, 0x92, 0xbe,
  0x7b, 0x9c, 0x07, 0x3e, 0x62, 0xe7, 0x0f, 0xbd, 0x64, 0x19, 0xab, 0xbd,
  0xf1, 0x03, 0x89, 0xbe, 0x70, 0x84, 0x1d, 0x3e, 0x1d, 0xfd, 0xe7, 0x3d,
  0x75, 0xdf, 0x37, 0xbd, 0xc7, 0x3c, 0x68, 0xbc, 0x30, 0x07, 0x11, 0x3a,
  0xf8, 0xe5, 0x30, 0xbe, 0x04, 0xda, 0x18, 0x3e, 0x43, 0x76, 0xc0, 0xbc,
  0xcd, 0xb3, 0xf7, 0x3d, 0xcb, 0xa6, 0x5b, 0x3d, 0xd9, 0x8e, 0x33, 0x3e,
  0xd1, 0xdb, 0xa6, 0xbe, 0x0a, 0x21, 0xaf, 0x3d, 0x25, 0x17, 0x12, 0x3e,
  0xd5, 0x9b, 0xd3, 0xbd, 0x84, 0xb3, 0x41, 0x3e, 0xc5, 0xbe, 0x37, 0xbd,
  0xbd, 0x51, 0x02, 0xbe, 0xc7, 0x6d, 0x02, 0xbe, 0x0b, 0xb3, 0x72, 0xbe,
  0xa5, 0x85, 0x87, 0xbb, 0xb4, 0xa1, 0x0f, 0x3d, 0x9a, 0x53, 0x97, 0x3d,
  0x10, 0xf9, 0x9a, 0x3c, 0xa9, 0xe4, 0x9c, 0x3d, 0x08, 0xd4, 0x72, 0x3d,
  0xbb, 0xf8, 0x92, 0x3c, 0xf4, 0xd3, 0x9b, 0x3d, 0x73, 0x61, 0x81, 0xbc,
  0xdd, 0xc2, 0x50, 0xbe, 0x79, 0x16, 0x1f, 0x3e, 0x17, 0x1d, 0x05, 0xbe,
  0x32, 0x36, 0x51, 0x3d, 0x61, 0x14, 0x3e, 0xbe, 0xf7, 0x3f, 0xf3, 0x3b,
  0xd3, 0x1f, 0x1d, 0xbd, 0xdd, 0x1e, 0xc2, 0xbd, 0xa8, 0xc7, 0xa8, 0xbb,
  0x73, 0xea, 0x80, 0x3e, 0x6f, 0xf9, 0x95, 0xbd, 0x63, 0x87, 0x0c, 0xbe,
  0x97, 0x1a, 0xa6, 0xbd, 0xca, 0x18, 0x74, 0xbe, 0xca, 0x32, 0x69, 0x3d,
  0x4a, 0xde, 0x1d, 0x3f, 0x62, 0xdd, 0x17, 0x3d, 0x72, 0xa4, 0x1d, 0x3c,
  0x6e, 0x2d, 0xd7, 0xbe, 0x02, 0x91, 0x8b, 0x3e, 0xd8, 0xf8, 0x90, 0xbd,
  0x4c, 0x12, 0xff, 0x3d, 0x54, 0x19, 0x43, 0xbe, 0x68, 0x70, 0x6a, 0xbd,
  0x53, 0x52, 0xa4, 0x3b, 0x96, 0xd9, 0x41, 0xbe, 0x80, 0xd9, 0xbe, 0xbd,
  0x86, 0xc8, 0xd4, 0x3d, 0x7c, 0x86, 0x32, 0x3e, 0x65, 0x25, 0xbb, 0xbd,
  0xac, 0xa1, 0x61, 0x3e, 0xf1, 0x49, 0x8e, 0x3e, 0x9b, 0x3a, 0xa2, 0x3e,
  0x6e, 0xbf, 0xa2, 0x3d, 0xae, 0xd1, 0x3c, 0x3d, 0x9b, 0x43, 0x62, 0x3e,
  0xf2, 0x05, 0xf9, 0x3c, 0x03, 0xb3, 0xaf, 0x3e, 0x31, 0x3b, 0x4a, 0xbe,
  0x37, 0x1c, 0xce, 0x3d, 0xca, 0xa5, 0x27, 0xbd, 0x68, 0x7a, 0xba, 0xbe,
  0xa3, 0x8c, 0x86, 0xbd, 0x07, 0x93, 0x09, 0x3e, 0x4e, 0xa4, 0xb5, 0x3d,
  0xb0, 0xe9, 0x2c, 0xbe, 0x3b, 0x90, 0x60, 0x3e, 0xdc, 0x81, 0x16, 0x3f,
  0x62, 0xe6, 0x6d, 0x3e, 0x57, 0x04, 0x4c, 0x3e, 0x52, 0x80, 0x32, 0xbd,
  0x3c, 0x95, 0x70, 0x3e, 0xcf, 0xf1, 0x2d, 0x3e, 0xfe, 0xf3, 0x4f, 0x3e,
  0x35, 0x28, 0xcb, 0x3c, 0xdd, 0xa3, 0xdc, 0x3c, 0x46, 0x41, 0x4e, 0xbd,
  0x66, 0x3e, 0x42, 0xbe, 0xeb, 0x59, 0x2d, 0xbe, 0xef, 0xf9, 0x81, 0xbd,
  0x12, 0xe2, 0x9c, 0xbb, 0x44, 0x11, 0xb4, 0xbd, 0xe8, 0x10, 0x05, 0x3e,
  0xbd, 0x53, 0x08, 0x3f, 0xa0, 0x96, 0x36, 0xbb, 0x2a, 0x52, 0xc1, 0x3d,
  0x29, 0xae, 0x0c, 0xbc, 0x84, 0xb5, 0x30, 0x3f, 0x4a, 0x98, 0x2c, 0xbd,
  0x23, 0xe1, 0x2e, 0x3e, 0x38, 0xee, 0x7f, 0xbd, 0x4b, 0x6d, 0x9d, 0x3d,
  0xd3, 0x53, 0x53, 0xbe, 0x6d, 0x62, 0x2c, 0xbe, 0xf4, 0xca, 0x1e, 0xbe,
  0x5f, 0xe0, 0x8b, 0x3d, 0xc5, 0x0b, 0x0e, 0x3e, 0x63, 0x01, 0x94, 0xbe,
  0x9f, 0xff, 0x39, 0x3e, 0x39, 0xb2, 0x84, 0x3f, 0x60, 0x34, 0xc5, 0x3e,
  0xa6, 0x12, 0x1c, 0x3c, 0x7d, 0x30, 0x15, 0x3e, 0xb5, 0x1e, 0x1a, 0x3f,
  0x72, 0x85, 0xa3, 0xbd, 0x9f, 0xf7, 0x21, 0x3e, 0x48, 0x94, 0xc6, 0xbd,
  0xf7, 0x7f, 0x81, 0x3e, 0x51, 0x26, 0x08, 0x3d, 0xcd, 0x4d, 0x92, 0xbe,
  0x3a, 0x28, 0xa3, 0xbe, 0x9a, 0x8c, 0x70, 0xbe, 0x2d, 0xc0, 0xfb, 0xbd,
  0xd0, 0x26, 0x76, 0xbe, 0x3d, 0x61, 0x9b, 0x3c, 0xbe, 0x5d, 0x47, 0x3f,
  0xe5, 0x90, 0x43, 0x3e, 0x24, 0x9d, 0xc3, 0x3d, 0x17, 0x18, 0x80, 0x3e,
  0xc1, 0x41, 0x8a, 0x3e, 0xce, 0xef, 0x26, 0xbe, 0xb7, 0x90, 0x89, 0x3e,
  0xd7, 0xb9, 0x16, 0xbe, 0xfd, 0xf8, 0x01, 0x3e, 0x8a, 0xef, 0xf8, 0xbd,
  0x51, 0xda, 0xcd, 0xbe, 0xa7, 0x52, 0x4d, 0xbe, 0x46, 0x61, 0xd7, 0xbd,
  0xd6, 0x27, 0x6c, 0xbc, 0x08, 0x34, 0x98, 0xbe, 0xec, 0x16, 0x38, 0xbd,
  0xb3, 0xd5, 0x33, 0x3e, 0x25, 0xd6, 0x0d, 0xbe, 0xde, 0x6f, 0x13, 0x3e,
  0xca, 0x12, 0x5f, 0xbe, 0x3f, 0xe0, 0x0b, 0x3f, 0xa5, 0xf6, 0xe6, 0xbd,
  0x87, 0xef, 0x80, 0xbd, 0x83, 0xd8, 0x5f, 0x3d, 0xc0, 0xde, 0xf1, 0x3d,
  0x5d, 0xeb, 0x58, 0x3d, 0x97, 0xab, 0xe3, 0x3d, 0xf6, 0x0a, 0xb9, 0x3d,
  0x20, 0x63, 0xd4, 0xbc, 0x3e, 0xaa, 0x98, 0x3d, 0xf1, 0x64, 0x34, 0xbd,
  0xab, 0x2a, 0x87, 0xbe, 0x41, 0xb5, 0xc6, 0x3e, 0x94, 0x68, 0x53, 0x3d,
  0xa6, 0x62, 0x37, 0x3e, 0x69, 0xd1, 0x8c, 0xbd, 0x39, 0x00, 0x6d, 0x3d,
  0x34, 0x11, 0xd4, 0x3c, 0xef, 0xa5, 0x48, 0x3d, 0xab, 0xd3, 0x6f, 0xbd,
  0x62, 0x51, 0xe1, 0x3d, 0x52, 0x19, 0xd7, 0x3d, 0x3e, 0x2f, 0x6b, 0xbe,
  0xf5, 0x68, 0x52, 0x3e, 0xc3, 0x1f, 0xdb, 0xbd, 0x5f, 0xc6, 0x2b, 0xbd,
  0xe8, 0x2a, 0x5c, 0xbd, 0x31, 0x8c, 0xbf, 0xbe, 0x60, 0x56, 0xbd, 0x3d,
  0xec, 0x73, 0xfc, 0xbc, 0xc7, 0xae, 0x2d, 0xbe, 0x0e, 0x24, 0x8d, 0xbd,
  0x4d, 0xd1, 0xae, 0x3e, 0xb6, 0x74, 0x26, 0xbe, 0xf3, 0x98, 0xa0, 0xbc,
  0x1b, 0x29, 0x64, 0xbd, 0x2d, 0x4a, 0x90, 0xbd, 0x0f, 0xe9, 0x0f, 0x3e,
  0x7c, 0x31, 0xab, 0xbe, 0xe1, 0x24, 0xdb, 0x3d, 0x21, 0x95, 0xae, 0x3c,
  0x7d, 0x12, 0x1c, 0xbd, 0x2e, 0x82, 0x26, 0xbd, 0xce, 0x45, 0x7e, 0xbe,
  0x6e, 0x72, 0xcf, 0x3e, 0x56, 0xc2, 0x73, 0x3d, 0x61, 0x24, 0x32, 0x3e,
  0x8c, 0x1d, 0xaf, 0x3d, 0xd2, 0xbb, 0x9e, 0x3d, 0x55, 0x4d, 0x2b, 0xbe,
  0x2f, 0xa8, 0x84, 0x3c, 0xc6, 0x89, 0x39, 0x3d, 0xbf, 0xb2, 0x5b, 0xbe,
  0x83, 0x22, 0xda, 0x3d, 0xcb, 0x89, 0x87, 0xbe, 0x2c, 0xd1, 0xc6, 0x3c,
  0xff, 0xf2, 0x43, 0x3e, 0xf8, 0xd1, 0xac, 0xbd, 0x48, 0xd2, 0x49, 0xbd,
  0x88, 0x9d, 0x01, 0xbf, 0xfa, 0x9c, 0xf5, 0x3c, 0x74, 0x92, 0x91, 0x3e,
  0x82, 0x1c, 0xb9, 0x3d, 0x11, 0x1d, 0x6e, 0xbb, 0x95, 0x74, 0x4b, 0x3e,
  0x62, 0x44, 0xd0, 0xbb, 0x89, 0xfd, 0xdb, 0x3c, 0x07, 0x1c, 0xa3, 0xbb,
  0xbe, 0x02, 0x56, 0xbd, 0x52, 0x9b, 0x2c, 0x3e, 0xc6, 0x40, 0xbc, 0xbe,
  0xa1, 0x7e, 0xed, 0xbd, 0xdd, 0x25, 0xe5, 0x3c, 0x51, 0x44, 0x65, 0xbd,
  0x4b, 0xb9, 0xda, 0x3c, 0x28, 0xf0, 0x94, 0xbe, 0xb8, 0xa5, 0xe1, 0x3e,
  0x9f, 0x6b, 0x7d, 0x3e, 0xec, 0xc2, 0x6f, 0x3d, 0xa2, 0x0a, 0x9b, 0xbc,
  0xf6, 0x31, 0x51, 0x3e, 0x0d, 0xd9, 0x6c, 0x3d, 0x16, 0xc1, 0xba, 0xbd,
  0xfe, 0xf5, 0xf6, 0xbd, 0xf8, 0x4b, 0x72, 0x3d, 0x47, 0x9a, 0x1f, 0x3e,
  0xde, 0x22, 0x84, 0xbe, 0x7b, 0xae, 0x0e, 0x3e, 0x94, 0x4e, 0x8a, 0x3d,
  0x6b, 0xa4, 0xd1, 0xbd, 0x95, 0xdb, 0xe0, 0xbb, 0x50, 0x1e, 0x5a, 0xbe,
  0x9f, 0x79, 0x89, 0x3e, 0xca, 0x41, 0xaa, 0x3d, 0x5d, 0x1f, 0x3d, 0x3e,
  0x47, 0x9e, 0x14, 0xbe, 0xc3, 0x51, 0x40, 0xbc, 0xf9, 0x3a, 0xb4, 0x3a,
  0x44, 0x59, 0xe0, 0x3b, 0xf4, 0x1f, 0x80, 0xbe, 0xcd, 0x2e, 0x8b, 0x3e,
  0x96, 0xbe, 0xb9, 0x3d, 0xc6, 0x0f, 0x75, 0xbd, 0xea, 0x4a, 0x99, 0x3d,
  0xe7, 0x39, 0xc8, 0xbd, 0xc0, 0x26, 0x50, 0x3d, 0x01, 0x8f, 0x06, 0xbd,
  0xa0, 0x66, 0x66, 0xbe, 0xfc, 0x57, 0x59, 0xbc, 0xf7, 0x00, 0x18, 0x3e,
  0xdc, 0x01, 0x47, 0xbd, 0xf2, 0x71, 0x11, 0xbd, 0x83, 0xd5, 0x1e, 0x3e,
  0x5a, 0xf2, 0x74, 0x3e, 0xd0, 0x6a, 0xf3, 0x38, 0x54, 0x94, 0x8b, 0x3b,
  0xa4, 0x3b, 0xb9, 0x3d, 0x11, 0x88, 0xae, 0xbc, 0xa7, 0xb2, 0x97, 0x3d,
  0x77, 0x37, 0x1a, 0x3d, 0x1f, 0x97, 0x9e, 0xbd, 0x42, 0xee, 0xc9, 0x3d,
  0xcf, 0x7f, 0xa8, 0xbe, 0x39, 0xd8, 0x1f, 0xbe, 0xa1, 0x00, 0x93, 0x3f,
  0x74, 0x87, 0x1e, 0x3d, 0x0d, 0xdf, 0xca, 0xbd, 0xd4, 0x8b, 0xcc, 0xbe,
  0xfa, 0x43, 0x30, 0x3f, 0xd4, 0x79, 0x04, 0xbe, 0xed, 0xd4, 0x95, 0x3c,
  0x97, 0x44, 0xcb, 0xbb, 0x75, 0xa1, 0x02, 0xbe, 0x8c, 0x03, 0x50, 0xbd,
  0x46, 0xe3, 0x67, 0xbe, 0xd4, 0xa8, 0x05, 0x3e, 0xc7, 0xf9, 0xaf, 0xbd,
  0x11, 0x8d, 0xed, 0x3c, 0xbd, 0x1b, 0xe0, 0xbe, 0xc7, 0x85, 0x90, 0x3e,
  0xe2, 0x51, 0x15, 0x3f, 0x46, 0xf2, 0x39, 0x3e, 0x62, 0x51, 0xa8, 0xbd,
  0x4b, 0x71, 0x7e, 0xbe, 0x6d, 0xb5, 0xef, 0x3e, 0xed, 0x1e, 0x48, 0x3d,
  0x06, 0x57, 0x9a, 0xbc, 0x90, 0x3d, 0xdb, 0x3c, 0x55, 0x98, 0x44, 0xbd,
  0x03, 0xdc, 0x90, 0xbc, 0xc3, 0xd9, 0xfd, 0xbd, 0x58, 0x3b, 0x25, 0x3e,
  0xc1, 0x80, 0xb4, 0x3e, 0xbe, 0xa2, 0xc5, 0x3d, 0xad, 0xa8, 0x00, 0xbf,
  0x2e, 0xad, 0x63, 0x3d, 0x0e, 0x03, 0x80, 0x3f, 0x97, 0x65, 0x9a, 0x3e,
  0x2f, 0x41, 0x41, 0x3e, 0x18, 0x3c, 0x0e, 0xbe, 0x99, 0x6b, 0x6c, 0x3e,
  0x63, 0xc8, 0x8f, 0xbd, 0x09, 0xf9, 0xed, 0x3d, 0x56, 0x11, 0xa8, 0x3d,
  0x46, 0x8f, 0x62, 0xbe, 0x90, 0x8e, 0x30, 0x3d, 0xaa, 0x3e, 0x54, 0xbe,
  0x73, 0x1c, 0x9a, 0x3d, 0x13, 0x1f, 0x48, 0x3e, 0x5f, 0x8a, 0x86, 0x3c,
  0x04, 0x9f, 0x9d, 0xbe, 0x74, 0xf7, 0x94, 0x3d, 0x29, 0x91, 0x6a, 0x3f,
  0x15, 0xb0, 0xb5, 0xbd, 0xac, 0xae, 0x37, 0x3e, 0xff, 0xd7, 0xb1, 0xbe,
  0x51, 0xd1, 0x44, 0x3f, 0x81, 0xc7, 0x36, 0xbd, 0xe0, 0xa3, 0x55, 0x3e,
  0x9a, 0xcf, 0xee, 0x3d, 0x78, 0x0e, 0xac, 0x3c, 0x6d, 0x51, 0xc4, 0x3d,
  0xc8, 0xb6, 0x92, 0xbe, 0x43, 0xf3, 0xfe, 0x3d, 0x88, 0x30, 0x8c, 0x3e,
  0x9b, 0x91, 0x1a, 0x3d, 0x1d, 0xc0, 0xb6, 0xbe, 0x2c, 0xb3, 0x15, 0x3e,
  0x7d, 0x0c, 0x3d, 0x3f, 0x09, 0xaf, 0xdd, 0x3d, 0x7e, 0xea, 0x9d, 0x3e,
  0x6c, 0xf7, 0x42, 0x3c, 0x56, 0xbb, 0x83, 0x3e, 0x70, 0x1e, 0x9f, 0x3d,
  0x5c, 0xa0, 0x8c, 0x3d, 0x32, 0x63, 0x7f, 0x3d, 0xb6, 0xe2, 0xe0, 0x3c,
  0x69, 0xad, 0x9c, 0xbc, 0x96, 0x0e, 0x4d, 0xbd, 0xdb, 0xc4, 0x8b, 0xbe,
  0x1e, 0x2c, 0x8a, 0x3c, 0x4a, 0xd2, 0x82, 0xbd, 0x05, 0xe7, 0x28, 0xbf,
  0x67, 0xc2, 0x15, 0xbe, 0xdd, 0xc5, 0x1a, 0x3f, 0xd8, 0xeb, 0x8b, 0x3d,
  0xca, 0x61, 0x46, 0x3e, 0x5c, 0xeb, 0x1f, 0x3d, 0x03, 0x05, 0x0d, 0x3f,
  0x01, 0x3a, 0xb8, 0xbd, 0x67, 0xb3, 0x6f, 0x3e, 0x19, 0x76, 0x04, 0x3e,
  0xce, 0x45, 0x42, 0x3e, 0x3c, 0xb3, 0x82, 0xbe, 0xd8, 0x1b, 0xbf, 0xbe,
  0x16, 0xeb, 0x16, 0x3d, 0x33, 0xab, 0x30, 0xbe, 0x0c, 0x00, 0xff, 0xbc,
  0xa6, 0xbb, 0xe4, 0xbd, 0xe4, 0x3d, 0x34, 0xbd, 0x45, 0xdd, 0xcc, 0x3e,
  0x7f, 0xfc, 0x01, 0xbe, 0xa6, 0x2e, 0xf4, 0x3c, 0xaf, 0xf1, 0x17, 0xbf,
  0xb1, 0x77, 0xef, 0x3e, 0xfa, 0x83, 0x96, 0xbd, 0x1a, 0xe5, 0xf1, 0x3d,
  0x33, 0xf9, 0x06, 0x3e, 0x42, 0xc3, 0xff, 0x3c, 0xa2, 0xfd, 0x88, 0xbd,
  0x46, 0xfe, 0xff, 0xff, 0x10, 0x00, 0x00, 0x00, 0x05, 0x00, 0x00, 0x00,
  0x14, 0x00, 0x00, 0x00, 0x2c, 0x00, 0x00, 0x00, 0x02, 0x00, 0x00, 0x00,
  0x10, 0x00, 0x00, 0x00, 0x70, 0x00, 0x00, 0x00, 0x17, 0x00, 0x00, 0x00,
  0x73, 0x65, 0x71, 0x75, 0x65, 0x6e, 0x74, 0x69, 0x61, 0x6c, 0x2f, 0x64,
  0x65, 0x6e, 0x73, 0x65, 0x2f, 0x4d, 0x61, 0x74, 0x4d, 0x75, 0x6c, 0x00,
  0x34, 0xfe, 0xff, 0xff, 0x2a, 0xff, 0xff, 0xff, 0x04, 0x00, 0x00, 0x00,
  0x08, 0x00, 0x00, 0x00, 0xff, 0xff, 0xff, 0xff, 0x70, 0x00, 0x00, 0x00,
  0x00, 0x00, 0x0e, 0x00, 0x18, 0x00, 0x08, 0x00, 0x07, 0x00, 0x0c, 0x00,
  0x10, 0x00, 0x14, 0x00, 0x0e, 0x00, 0x00, 0x00, 0x00, 0x00, 0x00, 0x02,
  0x10, 0x00, 0x00, 0x00, 0x04, 0x00, 0x00, 0x00, 0x10, 0x00, 0x00, 0x00,
  0x2c, 0x00, 0x00, 0x00, 0x01, 0x00, 0x00, 0x00, 0x02, 0x00, 0x00, 0x00,
  0x18, 0x00, 0x00, 0x00, 0x73, 0x65, 0x71, 0x75, 0x65, 0x6e, 0x74, 0x69,
  0x61, 0x6c, 0x2f, 0x66, 0x6c, 0x61, 0x74, 0x74, 0x65, 0x6e, 0x2f, 0x43,
  0x6f, 0x6e, 0x73, 0x74, 0x00, 0x00, 0x00, 0x00, 0x9c, 0xfe, 0xff, 0xff,
  0x92, 0xff, 0xff, 0xff, 0x04, 0x00, 0x00, 0x00, 0x10, 0x00, 0x00, 0x00,
  0xd3, 0x1d, 0x87, 0x3f, 0xbb, 0xca, 0x2f, 0xc0, 0x9f, 0x14, 0x25, 0xc0,
  0xb7, 0x24, 0x11, 0x40, 0x0a, 0xff, 0xff, 0xff, 0x10, 0x00, 0x00, 0x00,
  0x03, 0x00, 0x00, 0x00, 0x10, 0x00, 0x00, 0x00, 0x3c, 0x00, 0x00, 0x00,
  0x01, 0x00, 0x00, 0x00, 0x04, 0x00, 0x00, 0x00, 0x29, 0x00, 0x00, 0x00,
  0x73, 0x65, 0x71, 0x75, 0x65, 0x6e, 0x74, 0x69, 0x61, 0x6c, 0x2f, 0x64,
  0x65, 0x6e, 0x73, 0x65, 0x5f, 0x31, 0x2f, 0x42, 0x69, 0x61, 0x73, 0x41,
  0x64, 0x64, 0x2f, 0x52, 0x65, 0x61, 0x64, 0x56, 0x61, 0x72, 0x69, 0x61,
  0x62, 0x6c, 0x65, 0x4f, 0x70, 0x00, 0x00, 0x00, 0x60, 0xff, 0xff, 0xff,
  0x00, 0x00, 0x06, 0x00, 0x08, 0x00, 0x04, 0x00, 0x06, 0x00, 0x00, 0x00,
  0x04, 0x00, 0x00, 0x00, 0x40, 0x00, 0x00, 0x00, 0x85, 0x66, 0x63, 0xbf,
  0x49, 0x11, 0x86, 0xbf, 0xb8, 0x8c, 0xd9, 0xbe, 0x33, 0x85, 0xaa, 0xbf,
  0x36, 0x44, 0xd8, 0x3f, 0xd7, 0xf4, 0xd2, 0x3e, 0xfe, 0x09, 0x0a, 0x40,
  0xb2, 0x2d, 0x0b, 0xbf, 0x5f, 0x71, 0x7e, 0xbf, 0xec, 0x86, 0xac, 0xbf,
  0xeb, 0xcc, 0x1b, 0xbf, 0xd9, 0x31, 0xf9, 0xbe, 0x1e, 0xd5, 0xdc, 0xbe,
  0x07, 0x31, 0x51, 0x3e, 0x1e, 0x32, 0xd8, 0x3e, 0x27, 0x9b, 0xf7, 0x3f,
  0xae, 0xff, 0xff, 0xff, 0x10, 0x00, 0x00, 0x00, 0x02, 0x00, 0x00, 0x00,
  0x10, 0x00, 0x00, 0x00, 0x3c, 0x00, 0x00, 0x00, 0x01, 0x00, 0x00, 0x00,
  0x10, 0x00, 0x00, 0x00, 0x27, 0x00, 0x00, 0x00, 0x73, 0x65, 0x71, 0x75,
  0x65, 0x6e, 0x74, 0x69, 0x61, 0x6c, 0x2f, 0x64, 0x65, 0x6e, 0x73, 0x65,
  0x2f, 0x42, 0x69, 0x61, 0x73, 0x41, 0x64, 0x64, 0x2f, 0x52, 0x65, 0x61,
  0x64, 0x56, 0x61, 0x72, 0x69, 0x61, 0x62, 0x6c, 0x65, 0x4f, 0x70, 0x00,
  0x04, 0x00, 0x06, 0x00, 0x04, 0x00, 0x00, 0x00, 0x00, 0x00, 0x0e, 0x00,
  0x14, 0x00, 0x04, 0x00, 0x00, 0x00, 0x08, 0x00, 0x0c, 0x00, 0x10, 0x00,
  0x0e, 0x00, 0x00, 0x00, 0x10, 0x00, 0x00, 0x00, 0x01, 0x00, 0x00, 0x00,
  0x1c, 0x00, 0x00, 0x00, 0x2c, 0x00, 0x00, 0x00, 0x04, 0x00, 0x00, 0x00,
  0x01, 0x00, 0x00, 0x00, 0x40, 0x00, 0x00, 0x00, 0x03, 0x00, 0x00, 0x00,
  0x01, 0x00, 0x00, 0x00, 0x0c, 0x00, 0x00, 0x00, 0x63, 0x6f, 0x6e, 0x76,
  0x32, 0x64, 0x5f, 0x69, 0x6e, 0x70, 0x75, 0x74, 0x00, 0x00, 0x00, 0x00,
  0xfc, 0xff, 0xff, 0xff, 0x04, 0x00, 0x04, 0x00, 0x04, 0x00, 0x00, 0x00
};


unsigned int model_tflite_len = 12384;// Fill the int in `src/model.cc` here